node {
  name: "face_model/input_node"
  op: "Placeholder"
  attr {
    key: "dtype"
    value {
      type: DT_FLOAT
    }
  }
  attr {
    key: "shape"
    value {
      shape {
        dim {
          size: -1
        }
        dim {
          size: 224
        }
        dim {
          size: 224
        }
        dim {
          size: 3
        }
      }
    }
  }
}
node {
  name: "conv2d/kernel"
  op: "Const"
  attr {
    key: "dtype"
    value {
      type: DT_FLOAT
    }
  }
  attr {
    key: "value"
    value {
      tensor {
        dtype: DT_FLOAT
        tensor_shape {
          dim {
            size: 5
          }
          dim {
            size: 5
          }
          dim {
            size: 3
          }
          dim {
            size: 32
          }
        }
        tensor_content: "\372\272\243\275t\035X\275\354\333\201:\240{\374\274e\"\177<\221-7\275\242\260C=\226\253R=\030/\353;z\023\302;o\031d\275\020$\306\274\331\262\032\2756\344\363\274\363\227V=_\355\235\274\263y\215<\'/\036\275\202l\264=;\333\247\275\177{\256\2750\255r=\254P\254\275\373S:\273B\013|=\332\007\016=\\H\215\275o\365\247;vS<\275r\010\241=\2342\002\274\223\220\020=bv\236\274\202\355\220\275J\037\212<P\241<\275\316\226\250\275\332.\212\275\353/b\275Ox;\275\275\205t<\260\234\353\274T8\000\2745\365\234\275\303\364\017\274\3147\265=\225e-<\2731\256\274}\345a=q\221\021=\373\313g\275/\2078\275D\262a\275\344\207\200\275\003\252\233<{\014\306\2749$R\275\257\000\026=\314D\014=D:N\275\335\274/=6\001n<\374\204\251=q\002\222\274P\350z\275\222\337x=\304z\213\275\177\252\341\273\227\373\315\274\n\261<\275\342\370*=\202\004\203=\362\016m=\223mg\275\245\274\204=r\205\243\274\372\256\210:\014<m=\325o\241\274\355 \t\275<\206\240=i\3036=\t\344\236\275o\277I\2758\024>=\312\2322=\216\2418=\020\256[\274\217\360\013=\322\343\227=\313^\250<O\213h=B\013\037=A\334\200=\271\333\262<\207D!=\273a*\274\223\244\240\275\375\251\304<?M\300\275\246\277\027\274\021ty\275\204E2=\352(\255\275N\310\204=\2750\211\275\007c-=\217_\006\275\356\203z=^\376G\274\000*\201\274\376\203\326<^x\337<\365\351\262\274\334\223\233=\352s\205\275}\362\261\2755\033\227\274\231`]\275\274\336A\275H)\034=\210g{;\316\0051=\035\221m\275\326N\013=7\0356\274X&T\275}\344\207=-\336\004\275\365\310\236\272,f\326<\025{\206<\253\211<=X\311\227\275\014\374\207\275\313\"\346<\374U?\274\017\034\306<\341F4=\t*Z<*\004\214=f\345\335\274\333)\256<\252\257\231\275jQ\230=\236\032\262=\234\263\360\274\353\244\260\275b\030\237\274\376\036<\2743\013\332\272\225-?\273\327;\261\275\001Y\034\275\022\\2=\\I,=F\002\300\274\211I[<\n!\030=\254#\212=\305\224\247=\367\354x=\r\024G=P~\220=\204\341\224\275U\373^\274\223\247@=\377eh\275\367\304\220=\201\316\222\275W\233p=z@\352\274\257J\235=\223b(:p\311K=\255\'Q\275\267-5=*3v<\320\263\322\274\220\362\203\275\2256\336\274\000\242,=\310\243&=!6\242\2747\327\025=R\354\206<8l\177=\217\025v=0\"9\274\212C\344<W\261\231\275\321\rm=A\361\343<R\2051\275b\035?;\233\nF\275^\342\265\275\345\315\220<[\347>\275\026\024\213\275\355\366]\275~\267-\274j\315\232\275\307P=\275\215\"\037=\214\243\234\273\337\301\320\274\205\372\252=nF\226<\264\350\340\274\257A\207=\325\334#\275^}\217=(\324\0378\001\355w\275\260\005\241=\223\325\211=+\300\374<G\316\376\272\346!\033\275 v9\275\262\211\255<\220\343\344<\247a\227\275\265\212\177\275\r<\034=?\364\223\275K\340\344\274\341z\245=\360\226\251=\236\021\334<\331\273\203\275\335\235q\275&\034\000\275r\3178;>\225\264<y\027\214\274\'\270\205\275\346\315\212=t\234\212=\243\261@=*\013F\275\n\0315=\316\324k=t>\210\275G\320\246=Q>\240=\271\347\213=qT\337<a\322\r=\364\033k\273gb-\275,\202\"=\347\356\362<R\325\312<\020\261\370\273\200g\214\275sm\372:\205\225G=t0\217=\262f{=\352\327\200\275\001\3651= in=H\342\254<%K\034\274\241BQ=\347\3229\275\305\002\344<ZJW=)Q\210\275\2658c=z\006#=Q18<\237\344\023\275\341\025\035<p\372\021\275\2269c\274&\324\271;\002\305\303=\236:V\274\213\242\031\275,\352\230=Ii\001<\216\252\316<g\346\241\275G\256\025=\334`\217\274\226S\222\2758\231\026=\350\250\367<\005\333\262\275\340(K=\263\273\t\274w;\231=]\366\005\274A%\367\272\330\222\263<\373\240\274\272\326\310-=\353\362\351:p\267j\275\211\004\211\274\204\265\212=\335\261\240\274,\351\200\275\244P}=\r\3063\274\253\203\315\274!v\014<0=\213\273[\300\t\275\276E\242\274\307\004\217;\305@\020\2757\372\010\275\351(\006\275U\361^<\347\343\205\275.\300\300\273\247\372@\274}[-=;C\250\274\223\216\304<\341%p=\005\351\221\274 \221\026=c\3372=x\2112=C\253\311\274Q\352\035\273p/\230\275}5A\275F\376\221=\345V\223\275\225;\230<V\272\243=\367\364\003\275=`b=\262\372e\275z\030\027\275.D\233\2731\236\216\275M\272\026\275\r\004\355;\350\022\256\274i\002\263\273\355\367\222=njI\275EU\333\274\013\237L=\311\177\256=\330`\217<\027zo=;CT=\263\373_\275\035\224\236=\252\342\365\274W\027\237=\240=\273\274\213\244\315\272\344\tO\275\"\252(=\256d\275\274\016\320\260=\335\307\243\274!\013\245\275a#\214\275h\360\363\274\035\275\213=\366\204\244\275\222f\271\273H\020q=\334\214\314\274\205\021\231=\376\237\225<\267\274\244<\311\031\034<\232\331\216=(\274\305\274:\242 \275\004!\232\275\317\025E=\232\255V=\007\316k\275\343\224U\275\263T\205\275k\264w=Z\336\333<\250\307\245\275\006O\215\275y\010\211=\236\\F=C\255\225==V\231\275#Zd\275\240\2433=\331\3349\275\007c\232<\270\036n=\323\324z=L\243\230=-u\242=t-\264\275\n\202\306<9\343o;\352\304\035= \030\330<\311\345\257\275\236\306\212\275\021\210\235\275yr(=\361TP=\363\037y=\203\344|\275!\006\023=\\J7=\024y\207\275y{\020\275/\202\036=\214\223\216=\317\r\204\275;\337\340\273\252E;=\007l\'\275\321z\013\275r;\241\275\2137\236=k7h\274\016\262x=\336\272u\275\246\224\234\275$\"B=\0130~=\246\331>=\246\322 =\326\001\223\274\321V\211=uJx=@\227Z=\002\273w\275\030~M\274qF.\275s[\\=o\201\235;n\274\206=\254 \207=\200\001\213\275q\010\013\275\0069\365<\346\321\007=\r\360\215\273\224\240\003=\233\222-\2754G6\275\352\177\210\275\372\177\335\274u\n\035<\377+Q\275\337\334m\2751\317\234=\014F\370\274O\267(\275v6\014\275Z\3562\275b\371\204=n}\021\274\265\\\203=!\3735=\030\244\226=l\267\005=tv\234\274\257\0171<\254\330r\275\020if\275+\034\035\275\215<5=czL\275\344\203u=l\344C\275\t\356k\275\360do\275I\346\220=aW\235\275\336\300\036\274\370\003l\272\231\'N=?\005\227\275\007\006r\275z\026*=;\365_\274\265\000w=E:\001=\253\001d\275\220\3570\275+\241\232=^~\372\274\013:\245<\237\247\240\2741\310{=\235\003\010\275\035\361\242;Or0=ZD\226\274#NH;~2\215=sF\235<)\312\264=cu\226\274p\255\203=nk\214=\307(*=\267\214u=\355\230\221=\356B}\274\256\025\207\275\244\235\224=\006\356\262\274i\034w=~\000_\275uo\205\275DX\374\274\025\337p\275I\214\222<\333\236\221<\353Br\275[z\227=A\223\302\274\213ag\272Y\217\035\274\000\277E\275\263\017\226\275\343s\227\275\375OZ=\221\360\364<\317\274\207\2752h\266\275@\274a\275\367\030X\274\365\237\220\274,\250?\274\366\251\352<\225\031\213\275W\265~\275+\016\264=~\003\t=\3003I\274\221HW<D\256\355\274\335\236\000\275\014\330Q\275b\336\371\274\361pR\275!\362F=\244\240s\275\3008\202=R\323:<\332X2\275\351v\255\275\243\205{=\257.\217=L\020\031\275\303F\'=\202M\354\274\320\324F<\245)b=\217QH\274\361\216\262\274N\275\214\275j\236\222<%\364=\275\241@\337\274;c\376\274D\344\211<`\364,\275\022XM=\217\326\276\275\233\271\273<?p\033\274\204\355W=\031\313S\275\021\340{=\013\376$\275`\306\036\274k\266\260\275\334\352\226=\277b\177\275i\266u\275\243\203u=\331y]<\014\206a=\021H\205=ib\200<\2033\240\275\202:f\275*\002\221\275]\233\260\275\356\366\r<j\001\236\275g\250\320<\372\346l=\006\r\236=}\265\252\273\321\361t=\n\253h\275\357/\217=\006\006\243<M\274m\274J\361\276\274\357\257\233\275\210.Q\272)\033\213=\316!\036=A\213i\275\270o-\275\rg\216\275B^+=\312(=\275\317\271\255:\216\351d\275\\5\213=\333\2170=\000\254\205=\301Ea=\220a\021\270I\313\377<J\331[=\360\200\027\275\267!\202=\035\014\002\275\225\033%=HVB=\232\244_=\031\203\207\275\272\270\210<\017R\322<\036aK=\335\240\217=\206\250\236\275\021\005\224=\336\313\254<!\004V\275\341\027\207=p\271\227\275\261%\212<\254o\264=W\353\265\274OJW\275 \264\030\275\372d\020\275\227.\203=\357Q\344\274]\253G\2744\324\244<:\037\226:\216\026\230;<\335\242=\236\203\377\274L\304\254\273\254\\\265=\211Y\227\275~\202u=e\0337\275\210\370p\2744\313\016=\366\002\223=\207\313\244;\366K\031=2\317=\275\333Ie=+M\014<2D\010\275\217\301\226\275\031|\024\275_\202\244=)\005\276\275(\315)=\312Q+\275CX\353<\301F\302<\021\003<<t\211\262\273\211{\024=r\037\250=i\252\350<\334\250\251=\267\2735=H\271 \275\224\3471=\333J\241\274>\034\261=\300\211\r\274\367\324\216=x\2557=\311\230\300\274&+\\\275\272\373\006\274\341a\202\275.\027\352<E\327\301<(>\351:\270\207\226\274E\014\004\272$m\222\275R\212\025=\215b\322\274)R\233\275c#\006=\257(W=1\203d=d<\231=\302\317\224\274z\016\314;.\026\026=o\310n\275\353\t\211<1W~=\336\340\353\274W\232\323<d\025\240\275+W\231=@\200!\275:\317\005\275x\007C=&$\265\274\236UO=\311P\n\272\213\302\016\275\371\2344=#\204\275\274r`S\275\313\236y=\335c\203\274\177\351/\275fqK=\014#\227=W{\263=1v\232=\023\024\226<\317\233\273=\351\266\230=\350\034G\275\345}\273\274\216vQ;\254\350U=F\371\201\275\315\266Z\273*\021\t=\037_\276\274\340qS\275\235Y\t\275\177\214\240\274\016i\206\274\3520\235\274,\\\177\275\333h\031\273\202\302\252<\260\207\214\274s\005\254=\216\205N=\334\265\317\2738\302\246\275\203\026\027\275\204r\202=\354\355\213<9\374\002<\215\326]\274\273\336\206\274/x\304<\250~\224\275+\256Z\275k\024\017<\237\245\n\274c\344/\275\264\207B=\311\2309\275\216d2=\032[4\274\366|\373\273\373\022\210\273\341 \217\275\365hv=\273<V=\310=\254=\221\362k\275\263\220?=\300\263\304;`\027\265\275o\320?\275\275\313\324\272\232.\242\275\346OB<\3429\355\273\263\003\303\274^\270\227;qh\226=\236\037]\274\3173x\275\343\257\270\274W\r\226\275\243\205U=[\017\300\274\235\t\225\274d\353\233=\312T\250\275\301\327\022=\252\320\203\270\234\370\025=\241\250\314<\177\013\006=\345\231J<\207V\347<XX\345\274z\246v\275V\237\252=\r\205[=!,\246=$\r\255<\246\026-\275\274\001{\275\300\2743\275d\360\264<-\031]<\213:\216=\214\316\276<j/d\275\001:\222=v\201A\273\337\337\230=\305G\217<\244\027\224=r\034Y\275W/\206=\373fz;h(\321<N{N\274\352\'\332\274\306\377\201<\000\276\211=\227\253l<\022\036\022\275R\236D\275Q\330\250\274q\t\317<\262\272\223=-\222@=b\3550=<\220c\275jc\213=2\222\207=\262\342o=|{.\275\357r\006\275\320\322\246=\377\307\360:*-\n=v(\220\2737\312\212\273\321\363\276\274.\330\365\274A\302x\275\253Z\212=\317\264\231=N|\214\274\363\352\265\275\020\300%\274n\324Y\274*=\250\2737\352\340<\240U\246\2756c\260=\\E\002\275P\"\t=II\n=\024\251\255\275\306\374\254=h\371\t\275^\200\224\275s\252\215;/\r\225=YG#\275z0\216\275\005\344p;\276\3105;\252@U\275]\232\277\274\207k\331<L\376[=\021GT\275\211(\273=\2105\223\275\352\372\206=R\275\260\275S|\246=\2031v\275\372\325\337\273I\206S\275\224\201\n<K\201\242\275\275\304\240=\177\202\233=\366\226\274\274\373\315\275\274X\"+=\010\305u=\306\254o\275\356D\225\274\006s\272;\313(S\275z\202\203=\ra\r\274\301\232\320<\n\037\244\275D7\023=\222\360\225=\312\3134\275\337\371\225\274x\342\202\274\030\207U\275\301\2014\275=jn\275\337l)\275s\365\237=\323\222\325\273\201\020\316\273Ca.\275\001\237\344\273\024\352\300\274\r\270\n=\364I\214=\374n\334<e\243\032=#<\330<\363\205\000=\361\334w<\021m+\275\031\002j\274\006>-\275\005ez\275\177\361(\275\023\314\331:\014Y\035=k$(\275?\300\360<\224\033\217=@\203\270=s\202\016=\270m\205\275\302/\261=\307\311\334\274\203\014\360\274=\351V<\205\224\242=Oq\235=\216\270\205\275J\273G\275\311\374Q=\316\030[\275\300\272\204\274b#\231<(\207\347\274\307\365\250\275^\036\340<\344\263I\275\321sQ=\322\263E\275F\377)\275\344\275\303<Y\373A=\200\270]\275\211u\206\275C\037\242=Ao\034\275\356od\275(K\314<\006\032\362\273F\242\255\275L\'\037<\237\203\002\275jJ\227\2752ll=\202\353\214\275$\037+\275\322o\237=\251/\300\275;\241\334\274}e\336;\241p\254=\320\0016\275\306G\211<\313)Z\275\036~o\275\361|X\274H\3206\2755\273&\271I\021\003\275dlN=/\265\227;\210J\034=\241\246\200\275:\231\200=&\212\270\274\313\233o\275\232\'%=\223\001\372\274\020\300\202=\302\321\224\275\335\372\202=&\2033\275\306\227\300\274|\252\211\275\027\031\240\274#\353F<\210\233{\275\0174\363\274A\370\213=\\\231~==\363\227\275E1\225=\301\005\215\275\r\\\267\274\354\310\231=\002fU<\265\211\307\273\276d{\275kJy=\022\010\005<\321\237\357\274:w\037\274\017\317\242<\004\240e=\272\364K=\202I\252=@\000\226\275\367p\017\275lH-=Q\325<=X\240\217=,N\317\274\215\302\223;\nh\223\274\325.\246\2749\274\005\275\314\256[=\260a\320\273\303d\373\274\233\217O\274\221\203\006\275\036\265\324<\322|\031:aM\362<\274m\'=\341|\265<;\343&=\t\002y=\374c\315< \032\261\275$\330\201\274\302\002\232=\264F4\27592B\275\004\030\222\275\332&\257=\026B\266;8\231\231<\356\362\244=\027tb=:\216\343<\235\326\240<\037l\203\275\233\316\220<\001b\351\274\207.U=\236V\225\274<\271T\274\220\250]\275\"\3330\275\214\317J\275\255W\207\275\276(\207=\234\005\251<\222t\277=v\345+\275\\\322M\272\335n\206=\356\225\023<\233\226,\275\'\032\374\2749\302\333\274\221\314\215=?8W;\001X$\275\245\221\241=\203eg\275\253\212\333\274\001\263\262\273C\346Y\275\t9\317;\245\035\227\275\364\021\355<\356\035\212\275\243\307(\275S\372\346\274\314X\202=\360^\335\274\375^\237=\223-_=\025r\250\274\330\340\245=\270h\231\275i\313C=\036\005\212<\270\312\235<_\332\230\275x3P\275\366\257\014<\267\355\223\275\035\326\210\275*\365p<\230\335/\274\344Jr=\353w\224=\262\016\217\272XZ\363\274=\300r:>q\247=D\314\231\275\2267H=\031\324\324<30J=9\237}=K\263\020\275=\223k\275\360\265\215\275\355\264\"\275]\306\233=\021c*8O/\001\275f\333\037\275^\255\035\275F\325\336\274\353\327\376\274\215\364\017=g<\221\275\301U\365\274\250\256n;<O\261=\212\020\003\275\212\231x\274S]0\275\024\275s\275\314\273\321=\371\275\021\275\337;D\274`\244\013\275\336\324\263\275DtL=Np2\275\023\033\232<75\016=\351\306\030\275\353\010-=U%k=c\027C\275I\\F=\032\\!\275>\025\236<\332\246\255\274\234\320\264\275\245p\222\275\356\306+<\322\230`<\013\336\327\274\344>\322\274 F\200\273\230\202\271=\025\362\022<\364\203E\274\027\007\244\275\265\3634\275\256\256X;2@\035=m\274>=:u\217\275\267\353\203\275\366\230\005\275\277\'q=\021\020\310;?-+=)\036\326\272\274\013~\275P{y=\026o \274}\230\246<\247\024\226=\351\021b\275\262z]<q\001*=\001\373-=\331\331\346<\022*9\275\300\214\220<\034\205f\275\005\006\206=\376{A=\343\253\032=\231,/<\276\350\030\275\010\262\240\275S\333\031\275\020[\212=\356z\274<?UY<5h\030\274\237\346\303\274\223\270\346<\010\213\264=\377\037\231=Ys\203=\310\270\223=L0\270\274\027\366M=\265\201\227\275b\353\260=w\035\220=\312\322\226\275\325\307\333\272$h\262\275\266\t\227\274\"c>\275\367\026\014=$\005>\274\206Y\277<\251\330\317\273PU\224<uoE\275]\305\267<\360\300\214\274\313^\025=\336\204\203\275\337=Q=\024\376\036\275\001,\222=D\377|\275\265\341\217=\241!A\273\'\211\224\275\340zf9\262\205m<\310\241f=\352\304u=\211A,=\376t\257\275)\205R<\301\013\235=2D\275\275\205h\252;+w\260\273]\243\007\275\247\250\243=\210\322R=\321\372\366<\3324\226<\361]\254=\276`\017=\315\3138\273g6\'\275\023e\330<\002\343\211<\224\026k\275\033\336\211\275\340\201\234=l\320D\27553\001=;J~<\236\006\324\273\342\356\177\275H\254\222\275Hs:=s\350\266\275k\321N=\022\013\237=\r\246\205\274a\222\270\274\204\023\234\275\010O\302=\332\303\r=\321\347\026<\361\337\366\274\375\254\224=\322k\244\275\333\032F=\022x\317<\230t\225=\375w\276\273\337\0018<v\240\240=\335\370\204=\214a\r\275\031a\014\275B\273#={\252\257=U\310\224=\212V\253=Jv\243\275\254\000\212\274XQ{=\032\335\212=\310\232\001\275\344\362\020\274\330\017\236=L\3609\275yV\306=-\306`\275\220\345S\275U\226\266=\224\355\230\274\246\033\201\275\263T~\273jC\340<S\354i=\010c\216\275\000\331\014\275)IP;\\\313f=\177G\034=\220\243\014=\\\020\220\274\355P\375<\311\200K=>\377\360\274\032\260\214=\3218\372\273\214<\270<k,\013==\236$=P\027]\275\271\320\273;.y\362\274\220\374D;\331\010G=\243\223\221=\305\225\026\274p.\n=\251)\226\275a\200\226=\230w\241=\307\330\200\275\223\341\306<:N\026=\375e\026\275\r4\266\274d\261\351\2744,1\275*\236\257\275ZZ^\275I\325.\275e*\222\2750\004\300=\"\023\251=p\336&;\242\"7<\323\361Z\275\312\276\224=\305  =\362\250L<`G\227=o\2124\275\371\207\375<|\300\352<D\313q\274\302\314d\274\222\241e\274\234\001\272=\244\324\352\274,W\224\275f\233\3148Z!\003=\364\205\030=aq\213\275d\377\242=\220Q\223=\332S\250\274\324L\224=\344\007\241<\361\323\370<\022\221\232\275+a6\2758\261Z=\232\262%\275V\3140=\242\236`\275Mq\244\275\017\343;\275\351\253V=[\300Q=\235s\203=\254^\257=4\251\261=p<\214\274\240\020\200\275\\\275p=+\301\002\274\"\021\217\274\013\014\245\273\332\324x\274\272le=b\3776\275F\037\263=#=\263=\246\374X\275l5U\275V\304)<\2474M=\332q\221=\3055\224\275\326)\210\275\340\345R=C\216U\275.\352\013\275\217\266i\275\252.I;\233QJ\274\303f\216\274\316\322\246=\001K\301<\005:\247\275Z\373\030;\005D\202\275\304\337D\275\200\007\241;\334\3035=\034\333\257\274T\370\200\273mRB\275\243\251X\273\020\214\032\275\225\344\253\275-\232n=\225\020\213;l\364\"\275\370\347A\275]\357^=\030!\212=\361\r,\275\350\210\017\275\230\332+\274z\231\254\275*\020\373;\215\221l\275O\313\354;\2270\244\274\304X\020;\003gv<\275\355\210\275\032r\352;\367\233\273\273\374>\204\274\340\324\035\275\002\361\177\273\013n\276\271\275\200\254\275k\310\227=s\003\t<\371\031\363<\372\n\250\274r\213\335\271\2759\340</2\t\275\270zv=\317\250#=\307\320\314<&\256\025=\0029\212=c\006#=F\030A=\356\241\030\275\360o\315\274h\025\300\274\236\307M\275\001H\206\275&*\203\275\264l\007\275$\375\027\275\347\000r=\371\206\016=fr:\274G<\341<}3\224=%\024\221\275\304)/<\336\261.\275\274F\225=\320\314\227=\210\023b\275\200z\201\275\3520\206;\271\003U\275\\!c=r\022\260;\3560H\275Q\016\n\275\345bJ=\000gj=\003G\002;\360\332\230\275R\345\023\275\247\354\266<k0\030=\303\343\276=C\"g<\330\303$\274\r!\300<$\332c\274\233d\210=\3629\'\275\224d\\=\203\233\223<\0238\214\274\241+\216=%r\017=-\264A<\346|\367<\360\367\253=\t\314\226=9\341\266=\374\021\n\275b\304\211<a\310Y<\350\252*\275\374]\215=Y\330\002=\374\331(\274\202\311\263\275\2152G\275\263{\177=v\310\225\2751\365\231<%\244\016=\324j\240<E;\237\275n6.\275O3\205<\273\323\261<J\225I\275\364@\205\275\263\311M\275\222\212D\275YuU\275\200EZ\275DxM=aV\242=\263\006\024\275\301\036\342<\227\322\212<\020*\222=\213\021G<,\252\316<*\017\224\275\277\254\037=K\226\021\275\314r\304=\254\325K=\027o\350<\np\350\274\303\376g\275\032K\000\275\273\356\323<O4~\275\301\3057\274\007S\235\275?\014\201\275\343\367\204\275\356\331\312<\006HP=\334\250\242=0h4\271Ck\001=\214M%:/\014\303<\345\027\216\274\025\277)\275\037\322\247=/\247\323\274\250\320\231<\013Y/<\032\227\260\274\226],=(\232\260=~\370?\275\344\203\227\275n\254J<\032\371S\273\250j\212\275\225\027\346<\220\210:=\300\001p=q\2717\275\353\240\265\274\327Q|=\345\347\213\274\316Gf\275\235\006\207\274\340+\210=\213A\267;\034\367\016\275!\005\217<\204\275\210\275a=X\274\317.\202=\343\n\365\272\301\254]\275\366\264\235=d\006T=k~\201\275\2100\360\274?\277|=^\031\010\275\325Z.\275\243\301\232=\005r\220=\352\177\273<\323\207 =.J\241\275\204\321w<\334\177\007=\331\301\201=\010y\242<\027Y\236=t9\232\275t\275\331<P\263\262=\212BK\275j\277\207\275e#\251=\020\374\330<\246n\227\270\307\025\257<\315\342%\275\251}\355\2743\376%\275\025\242\204\275\362C\274\274mr\236=\333\3459=\261\036t\274\353\225r=1\233B\275+\272$\275\000\343\214\275\342o\000\274\233\247\250=\200\221\254\275\\\261\267<\013i\221\2756\251\202\275\255\251Y=\335\255\037\2739E\232\275FJ\263\274\006\005|\2750\006\203\273\334\255\205=\317\274\\\275\200\357n=l^\242\275\342\273\255<\001}\370\274\237P\251\275x+g=\351ak=V:\222=K\306\t=\204\211\005\275<\242\250\275N\372\374<\334\236\347\273\303\310\250=\200*^\275_\225M\275\004\375\254\274tU\316\272\337\261M\275\220\037\222=\002\036g<cQi\275\260\314y\275\001\335T\275\245K\002=\246.\201=5\220\237\2754\005\243\274\320{\013;r\252\323<\267\217\246\274\233\313\236<\323\346\026=\257\275\274\274\3708c\275d\001g\274\200\252\216=\275\330]=\3021\210\275\n\3074=\375\311X=\r\343z\275\212Q\226\275\030\227\261;.\031\025\275\3752N=\374\317\224\275\205\315\227\275\023\377\311<\225P\201=\037\017\222\275\345\000\004\275\204\366\335\274\365X\257\274CA\025=s\240s<c[\246\275Z\3738=\321a\214\275\241\246l\275IM\222\274c\345`\274\351\272\004\275\037c\206\274\332\270\177\275\232D\334<\303\371\215\275<\324U\275\'*M=\005\022\222\275\275+3\275Q=\371;\260\266\034=(\3328\275#\214\367<\311\205\026\275G\002\032=\024\252\236\275\276DG=u\330 =\201%h=\242\032\204=\215s\211=\277 \206\274\345\225\351;\212\032\353\274\037;\211<X\236\\\275\345\017;=\244\347\032\275\345\364\262\275\215\301\317<\222BR<\252\207r<0\273\216=-k\317\275E\337\377\273uN\005\274\222.\263\275Y\305\035=\017\360;=N\202]<\340}\206= \264H<\263\213\t\275\321z\210\275\t\335H\275\032\032\341<\244\021P\2753\215\205\275\360Q\357<b\302\272\274K\331\203\275`ci=B\326\230=\351\365p<<5\007\275\336\256\024=D\316}\275c]\037\275\231[\356<!P\253\275\267\240<\275\026\022B=Jl\306\274\013^\'=\\K\211=\036X\223\275\200\031-\275\351,h\275 \017\343\274K\345U\275/\010\227\275\250\261\021\275\247\360\211=\023B\204=~\260Y\275\367\204\233=\305lB\274\247\325\033=L|\034\275\013fM\273\350\314`\275\200A7\275\261]\177\275PG\207\273\022c1=\212\302\341\274S\304f=\0304w=m\341\310<\235\243p\275\205 \030=\342-q=\216\236\254=\030\243\253\275\302K\257<or\206\275jR\034<\357\370\245=\021\255Z=MN`\275H\006\301\274\267p\220<E\305\273\275\377\304\355<\027C\242=bg\224<}\332%=\177u\227=\344W@=g\243\033=\232\342Z=\336\013;=oS\211=p\020\246\273\247`\022\275+J\206\275%\273\211\274F\214\006<\034\357\206\275\343M\254\273\0135\261\275\205\311{\275\230\371\307\275^\270\250=\013\266\365<\274\357\255=\233Nz\275f\270\000<\320\364(=!\204\251\275z|#=\250\260\025\2740\032\222<O\373\023\275\237@\241=\307o3=\304$\350\274\230bN=\374`\177\2749\360O=\237,\225\275\370w\001\275\354\\\337;2\n\n=\243#\346\274\204\022\021\273\3169,=\334\331;\275\337<\234=\315\244\267=\325q$=\375A\251:\013\316\214\275O\215\311\274\312E\035<\260\326\313< \264\237\274v\213u=C\005\031=\362Rs=\0062V;\'\354\207\274m\317\022\275\325\343\210=K\\&=P\270\257<\3771\350\273\247\357A\275$E\201\275p\276\247<A\357#\274\3074==y\276\357\274\313\300\225<CY|\275\"C{\275\320\343*=\031\032F\272/d4\2746\250c=en\355;&\342\225<bP\370<\201+\205\275V\237\252=\376\030\301<\312\260\\=\013e\234\275\247;0<!\242\267<\372\265\256=\241\324\351<\251\316@\275:\322\266=\224\246\221\275\256\352C=\032\003D\274\\\023`\275f\346N=\255\212\237;-\370\225\274dc\213\275\234\210B=\257\364\227=\211\352\033=\245c\240\273\307\214\272\275\315\310T\275\235c\227=\222\243H=a\000\320\273Y[\223\275b\253\333;\324W\254=\301n;=Q\313\352\274\340\017\250<\346\021\360\274\212f\265\275t\356/\2758]\2669\245\220\230<Ca\206\273\005Q|\275,C\306\274a\324\014\275g\262\214<\370\255p=\270\347\357<hE\222\275\306\034\310<)\307k<\277\016D=\347\030\207\275\220\232\024\275\2105\222=\275C\032\275\371\275{\275\020\363z\274\244P\034\275p4\037<\231N\r\275\256\205\003\275\300\326\216=r\010e=\213\263\261\274|\303\032<y(\352\274\334\036\255=\334\262\216\275\356 \233<36x=W\206\200=\300M\304;\227\177\304<+$p\275\024VB=\307\356\000\274\203;\376<4#\003\274pOp\275\224n\255=0\220z\274}\213$=\033\266\312;\003\211;=\261\370\004=\216\003h\275O\324\221\2749%1\274D\262\325<\323I\227\275\245Z\003=\023e\221=\236\'\260=\\\341\251<\205\263\024\275\001\027\004<\254\321E=\316\261/=\345\311\245=M\016\253\275\220\222\335\274\265\321\205\275~\257a=\004\035|\274\350\313\252=\010\376\013=Np\327\274e\220\t=\373Nh=\315\312P<\373\361\201=\260\016\222=\214&\226<.c\337\274\227A\264=mY\357;/#\301\275\257\314p=\333\255x=\002\276\250=\377w\205\275\213\032\216\275\357\245+=tD*\274\352_\301<\240\220\317<\031\211\254\271\226\324\226\274C\265\325\274M7\016=R0\261\274wf\206=\321\353+\275.\201\225<*\312\210\275\016\344\232:\306\310\"\273st\347\273\177\326\222<\314_)\275\201-z\275:\373S\274h:\205\271\26167\275\260\254\237=Z7\301=Zw\221\275\3573\247=l\244m=\233\241\220\275\245\332\213\275F\242\242=\0377T=_\370J\275\246\260\216\275a\351}\275(\t\220=\010\003\221<\3332\207\275i\364\207;LN\241\275k\013\030=)\2527\275,\312\214\2759\331\002=z\347i\275\355R\221\275\327\213V=\036\225\231=\216\354\231\275\026\242\234=\241Y\310<6\033\304<\352{\212=5\204i\275H\200;<o\256\027=X\020\333=7\307\340\274V\013\237=\357Ak;\342\326>\275Q!b\275\367\222\254\274\202\337\260=\002I\253\275\257\'4=\204\032\017\275\024\347\'<e\036\365\274f\372\237<\213\310\024=\331\306\217=\320C2\275\377\304\211=X\033\200\275^\020\n=\316Y\227=k\244\'\275\372\"\247\275N\212\033=\225\026\340<w\300\234\275T\223\227<4;\253;\307\313c\275\254\312*;\005\252]\275F\221G=\367u\003\274\233\025m=\303\233\270;T}\224\274\366\013\006\275\226\324\362<\310I?<B\002\350\274\223\364C=\036\350h\275g\002\207=Zg\251:\276\344\256\275\364\225\243=\253n=\275{\017\276<\372,\356\274\360\314\357\274\207\312\226\274\225?\031=\375\250^=\364\002O=\246\244T\275I\200\031=?\036\265\273\216:\272\275H\257\266\275\237\302\203\275m\342\234<S\307\016=\234\003Y=E\241\327<\255@\254\274\242\323p=\307\255\230=\\\373h=\274\027u\275\220\260z=-\244\324\273\255\210\254\273\255\021\227<\274O\007\275jM\316;\227l5\274`\031\311<\322\033\031\272\256Q\264:\236\273\355\274@&\361\2730m`\275S\332\320\2744\363\"=\241#\316\274\314\3247=,\301\204\275k\036\007=\353.~\275DV\245=\370\256\034\275\372\337\n<\225\256\253=\2134H=\316\311S=g\263\210\274\344o\024<F\314\213\275\370\260\337<\006\243_=\020\rJ\275\235>+<\351U)\275\013#\230=F7o\275m\363\353<I\353\251\275\337\235\210=w\273\331\273\227\204\203\275~\260\037\275d\325\251<\323a\267\273i\206\373\274\306\213\367\274W\235\240\2754\237%\273\007\200\316<\242\362\027\275\232C\212<.W%=B\345\200=c\202/\275\255\321C\275\326oJ\274$\211\204=\311\264>\274\304\262\021\275Bu\013=\214\"9=V\033\006\275\352|\242\274f\302\032=\177\245\177=o\341\247=\214\374\274\274\272^D\274\220\370\270\267\036\251\217\274\267\362\027\275\037g\254\275dk\264=\277K\221\275\020h\262\275\006\303\216\275\376\263\220=\374n\246\274\351\033~<dV\205=\346h9\275\365l\332;\374\220\270\274a1\201\275\312\016\244\275\017\214r\275\320\006\215\2749\236.\274\022\"|<\226\210D=M\256\252\274\363\322\034=6\"\003=\320Z\020=\243Va\275\376\375x\275\033\021\240\275\177\"\210\274h\027\371<s\254\013\275]\330?;\0175o\275\030#A\275\324.f=mG\"\274\243\031\236\274\200\274+=U\255<\275\016\t\242\273\206\265k\275,%\001<N&#\275\322\355\367<*\360\223=\207\206\241=\2215\230<Id\334;\377\347\227\275_\212\250=\334\324\360\2746\367\337\274\2667 =\257\311\241=4\312\214=\272\230C\274\364\240\030=\247\225\000=\2731\035\275\027\213P\275\362`\213=\307\010\213\275\244 ]\275#\230\207\275\327;{=\331F\337\274\014$\201\275\226\177S\275\267[n\275\014\237\242=\033\020V\275\312R\363<\355K!\275\301\231\220=\271A\350\274oP*=\242\340h=B\372R\275,\222\267\275l06=\3255v\274\310k>\274\031\256\004\273\243\t\000<\032n\001=\017\220\211=\202\314\034\274B\372\201\275\372\251\031<A\023i\275\265\236\264<\356\331\252=%\323\037=m+&\275\254&\361\274\026\256+\2754\300\307\274\005\223\346\2748S`\274\245(\327<tBL<yz&\275sjW=\r\246\233\275\323\374`=a\252d\274l\267\\<\276+\374\273\235\n\230<\254\225.\275\024\013\205<\n\017\233\275i\033\343;\216\372\254\2741\"\220=N8\246\275\005|\357\274\260;J=R\275\200\275t\217c\275\265\336\206=\217\";\273m\374\301\273\n\303\202\275kX\247\275\'+\235\275\002\276\312\274M\244\204\275J\361\'\274\210\325\333<\325\222X\275\226B\314<\347\270g\274\014D\217<\010\210S=^Z\206=\360s\300\272U\022 =\311\345X=\302\004\216\275c\375;=*\2768<\013M\241\275\342\022)\275\241\177\210\275+\303\022\275\327,2\275\272a\217<6\006U\275Sua=<^\351\274XI\230\275\355\261H;\352\361V\275\313gU<U>\304\273yoy=\245j\224=\225\256\220;k\351\331\274\242\320\316<\340\355\245=\214Gz\274Z\274n\274\322\266\250\274\214N\222\275\326\356z\274\343\275\274=\221\237\216\272\027\353\n\275\200\032\224<\364N\366\273\341\235h\275\320\310[\275;\343)<\273\253B\275n\037e\275"
      }
    }
  }
}
node {
  name: "conv2d/bias"
  op: "Const"
  attr {
    key: "dtype"
    value {
      type: DT_FLOAT
    }
  }
  attr {
    key: "value"
    value {
      tensor {
        dtype: DT_FLOAT
        tensor_shape {
          dim {
            size: 32
          }
        }
        tensor_content: "4.\010=\232\274\202\274B\223\026<\024$;=\355\274\004\275E\212\317<\367\006\302;\273\274\226\274\350w\256\274v~\300;h\252\305;9\010\\<\004\311\272\274 \301\341\273S[\211<$-+<#\364\276\274\320\017c\274\301y\211<\014r\346;#\302x\274c\340\210\274\333\373J\274\353\271\213:N\366\r\275\263$\247<\004\206h\274\366\370\023<\372\034p\274\036Lu<\207\264\260\2740\310\013="
      }
    }
  }
}
node {
  name: "conv2d/Conv2D/ReadVariableOp"
  op: "Identity"
  input: "conv2d/kernel"
  attr {
    key: "T"
    value {
      type: DT_FLOAT
    }
  }
}
node {
  name: "conv2d/Conv2D"
  op: "Conv2D"
  input: "face_model/input_node"
  input: "conv2d/Conv2D/ReadVariableOp"
  attr {
    key: "T"
    value {
      type: DT_FLOAT
    }
  }
  attr {
    key: "data_format"
    value {
      s: "NHWC"
    }
  }
  attr {
    key: "dilations"
    value {
      list {
        i: 1
        i: 1
        i: 1
        i: 1
      }
    }
  }
  attr {
    key: "explicit_paddings"
    value {
      list {
      }
    }
  }
  attr {
    key: "padding"
    value {
      s: "VALID"
    }
  }
  attr {
    key: "strides"
    value {
      list {
        i: 1
        i: 1
        i: 1
        i: 1
      }
    }
  }
  attr {
    key: "use_cudnn_on_gpu"
    value {
      b: true
    }
  }
}
node {
  name: "conv2d/BiasAdd/ReadVariableOp"
  op: "Identity"
  input: "conv2d/bias"
  attr {
    key: "T"
    value {
      type: DT_FLOAT
    }
  }
}
node {
  name: "conv2d/BiasAdd"
  op: "BiasAdd"
  input: "conv2d/Conv2D"
  input: "conv2d/BiasAdd/ReadVariableOp"
  attr {
    key: "T"
    value {
      type: DT_FLOAT
    }
  }
  attr {
    key: "data_format"
    value {
      s: "NHWC"
    }
  }
}
node {
  name: "conv2d/Relu"
  op: "Relu"
  input: "conv2d/BiasAdd"
  attr {
    key: "T"
    value {
      type: DT_FLOAT
    }
  }
}
node {
  name: "max_pooling2d/MaxPool"
  op: "MaxPool"
  input: "conv2d/Relu"
  attr {
    key: "T"
    value {
      type: DT_FLOAT
    }
  }
  attr {
    key: "data_format"
    value {
      s: "NHWC"
    }
  }
  attr {
    key: "ksize"
    value {
      list {
        i: 1
        i: 2
        i: 2
        i: 1
      }
    }
  }
  attr {
    key: "padding"
    value {
      s: "VALID"
    }
  }
  attr {
    key: "strides"
    value {
      list {
        i: 1
        i: 2
        i: 2
        i: 1
      }
    }
  }
}
node {
  name: "conv2d_1/kernel"
  op: "Const"
  attr {
    key: "dtype"
    value {
      type: DT_FLOAT
    }
  }
  attr {
    key: "value"
    value {
      tensor {
        dtype: DT_FLOAT
        tensor_shape {
          dim {
            size: 3
          }
          dim {
            size: 3
          }
          dim {
            size: 32
          }
          dim {
            size: 64
          }
        }
        tensor_content: "\025t\304<\264kX<w\326\001=\013\237\272\275\356}\003\276e\311\262\275\000UR=\005\376\022\273D\357$\275\212XA\275j\370\021\2755?\252<\310\240\200=\355\376d<\301\267\007=+\205\275=\333\271@\274\323Z@<\353\255\257\275\037q\017=\314\225F=~H\010\275\320\322\263<\254\366\326<T1$=U\315h\274\314\263\004\274#U1\274M3\263\275\266-\3139*\374\313<\314\222D\275\032\007\023\275\263\375\323\274\253\321\250\274\267\340\n<-\0262=|l\277\273B\377\267\275\361\262\007\275x\230\007\276\004=;\2741\356\242\274\242w\255\275zd\007\276\333#\265\273\342f\001=\240\376T=\r/\345\274\216o\335\275\202\2136\275\302 \246=\334\265o\275\354\345\016=o\211\324<Ig\360;F\232\002\275\353w\177=\334b\027\274\037\201@\275\332\021\342\274\271\275\002=\250l\031\275\205\206\337\274\234\336\351\274kZ\376\274\2266\345\274\310\310\005\275\362\224w\275\321,\254;\3601\364<\277\276\275;I\032\360\274\013\346f=q\356d\274\300\244V\275sJz\275\301\321\203=\214Ze\274%+-\275\365\016}=\375\357U\275\263\204\007\275\021d\203=245=Z\316U\275\303\245\202=\255n\264\274\360\335\367<6\032\\=w\2064;\262\347D\275\2606\245\275\223\3175=\346\3603=Nn\265\274w\316\014=S7.=\267\307\245=6c\205\275\314\271\235\275\252t\314\274b%W=;QR=t\212\216\275\210<\360;P7\311=\257\273$\275b\277P\275\254\252s<Np\231=n\3672=r\337\251<[\364\303\274\030\364B=\2561\266\274m\201\\\274\215\325\225=!\032\003\275\220q)\274\n\376\001=\033\203\'\275\250-\237=\026\0146\275cXT={\365\243\275\216\231b=\r\204\305=\272\353\272\274\253\236\237\275\237!h=\356\013\026<\006\351\253<\372\337\213\275.\345><\261\225\003=.SG=gj!\275!\302\320\274C\357#\275\243= \274\335\331R=.\267`=\017\212F\275S\241\034:\370*/<\215\333\270<\350t\r=\021y\010\275Z{j<\tM\230=)W\205;$c\211\275V\241Y=\035r\226\275\036\217\232\274\345\366\266<Vu\217\274\2304\351\274h0Z=\r/\307\274\212\223?=r\\\373;\343\317\222\274b\320V=W\317\263\274\002\277\253\275\331\261\216\274\236j\203=\250,\203<\235F\220\275\330\r=\2751\374\'<\030\035\177=?V8\275\360\322>\267\327\363\207=\2074\247<\345\004\020=\204/\250\274+\256+=p\270\263\274\352\360\234=\232\363\306<\361)N=\344\346#\274\031]\266\275-\344\025=K\251\366\274\210\355K\275)O\352<\376a\227=\313S\037\275\307\366\311\275\345\021I\275\317V\203\275\230\340\356\275\224L\225\275\004\347\213=\245\256}\275\233c\t<W\362\233\275\016I\021\274{!>=$D\317<\264?6< \213\235\266\360 \232=\327\006U\274\332b<\275\220\213\264\273\212=Z\272\367N&<\036\016\220\275\234i+=\263%\315<+`\235\275\332\307\017;]\014\350\275\347|\330\274\304\350\234<\367y\206\275 \250\252<\255J\342=\273\276\020<\315\021\202=\346qt\275$A~\275I$\232=\032\\\345\274\002g}<]\036\003\276w\352\214\275\3048\032\275\r\237\255<U\207Z\275\"\346\006<\265\'\350\274\371-2=d4\213=\277\205<<\312\010\243;\323\371\223\273\226\350\202;0\304W;\236p\257\275\260\2247<\211\006\371\274\216\243\247\275[\202\272\2754\001m\272dS\234\275\231{\271<HN\300\272\212(\022=\325\325\262\275\367\253\026\275l\r\364<\333\254\221\275\276\247\232\275\204;\312\273V\376<=\266\364\304<\327\374^=Q\031Q\273\177\352\027=\244=%\275\t\362<=qG\n;D\242v\275/\236\303\274\242\020\236\275\214\266\245\273T\202a<|^\370: \002\237=\344\036\211\275\031\025\231=\307ZC\275\216\251\212\275\250\344:\275L\372r=0\013w\275a\275\243<\274\220\211=\231\014\001=\223F\353\274=\240\336\274j*\270<U}\341\274\342ns\275c$@=\365-r\275Y\363\023\274\355(a=\272e\265\273^\336\013\275\226\227\217\275\310\002\\\275k\243\250\274c\260\017=\260\327|\275\220\372$\275\250Y\252=\366zc\274y\347\230<\250j!\275h\312\244<\036\256\231=\352\333Z\275}\337l=\365h\202<\314\020N\275K\023\311<\266\243\242=v\362!=&\362\031=\t\234\243=\335\222L\275\276\347\226\273\022v\013\275\024.\263\275L\227$<;\223\030=Di\304\274\372\304\354\274\216\226\246=\362\001\301;o\253&\275\232)\017=\234\244\303<\026:\243<\306\261Y=\272\005C=\240\231\005=\333\206P={\002\263<yk\243\274\261;\235\275\222\315S<\307\264\213<\003\252\231\275\0202\333<j\004\240=\340S%\274\353\207\210=g\337\301<\021\001Y\275\264dE\275K\027\241\275\354<&;?\021\261=\210\347\212=X\\\217\275\345~9=\362\321X\275\362m\276<T\244\277\275\003\326\274\275\306zC\275\241\262\252\274\032/\267<D\244\t=Ng]<\t\024\225\275Z\354\260\275\n\206\373<\316\345\377\274\275#\004\2759\024\264\275\275J\217\275\265Ig\275\217\366\241\275\346\342\350\274\211\232\232\275S7\004=\211^\240\274\003\205r\275\361#e\275\214>\226=\024(\n=q\320r=\304\323\n\275\270\230A=\364\234\022=\355\314C=\276&M<Q\257\215=0\022\254\275\341k#=2\376\025=\031_-\274\251\201\\=\217?\213<>\343B=\\\214@\274x=\312\274\371\305\305<\'\356$=\236\267J=\177\220\232=\033\234\371<A\232Q=!(]=\254wo=\346\020?;\006\006\211\275{\335\206\275\335l\177\275|\340\236=\366\027\323<K\006\255=\013\360>\274\341t>\275Cx\202\274Y*u\275\301\345\332;=\304\226<\317\3140\274\357\271\231=\210K\206\275[\2616\275\367\327&\275u\362\242\275G\340\206=\0103+=2th=i\375{\274H*\214\275\\\326s<[:m\275\224Q\013=AUm=z\321b=\027Q\\=Q\374=\275\340\030$=a3r\275\371y\204\274\347\230\262\275\333\331\333<\032O!=\245~{\275\357E\221=\372\\\313;KY\225\273O_\200\275S1\211\275.0\257=\246\275\222=\316\\\242\274l>\267=\216\203\010<U\026?=\344&\244\275L\002m\275\025\t\272\273\315\r\253=\000\334\276\274\224\314$\2756:w=\207\251\200\275|v\231=lH9\275g\205\204;\216\277\215=\246M\032\275\034\313\305;\350I\203=\002\036\025\275\036|\323<kn\260< )\251=\232\n\367<\304\010C=K\234\277<\256K\026\275\244\260p=\021\331\036=\020[\271\274\340\025P=\203\265\221=\247Ec\274\021\202\373\274k1\204\274w\355\n\275Y*W\275a\014t=\323\275\227=F\256\300<\221\033\010\275B\230\213\275\244\253\205\273\3047\245=1E\"<\ne\360<\215a\214\274O\3621<&\370\227\275\337\217\330\273Za\215=\t\361g=\214j\237\274w\005l=\234w\037<\273\347\227\275\227\355y\274n\274o=\363\262,=\367\363\222\273z\373z=S\326\216=\3120f=\220\206\240=j\007D\275t\"S\275&\211\234\275\367\272\273\274Hy\203\275M\256K=\320\332\377\273G\'\323;\243\211Y=)\036\342\274\335\033%=\3101=<\376\336\255<\262r>=\277\276\023\275\030q\347\270\316\273\241=GY\235=\0038/\275Oz\010=\236\301\206\271\342T\220\275\356o8\274-\334I==\233k=\035\360\n\275_y\022=]`\206=E\221\236\274\257\236}<N\007\270<1D\265<\3221\305;\232\016\314\274\354\231\205=G\002\210\274\212\244\002=\224\217t\273\267\227\373\274%\266v=\226\363\325<;\265\307<\207\200\214\275L\240L=+\r\201\275\274\374\324\273\013-\357\274:\246(=\202\035\247\275\362\232?<\206\376\247\275]?\230=\027\225\203<\037\215\235\274\250\223\242\275\326b\215=\324\312\005\275\030\253c=\230\320\200\275\246fm\275\252Ns\275\260t\007=P\343\031\272\'\001\254\274\216\247\204=\245\251\210\275V#\021\275\322f6\2750\032\224=\236d\203\275|\372\331\274\277p\213\275\3709\242\275w\263\200;\003[v\274\274\nG\275\346\t\337\273\325\373\344\274u\320\217\275\234\223\221=\236\357J\274\340\n\257\275\241U\201\274\262M\264<\336\373\304\274;\233+=\207.\005\2752M\n\275\370\206e;\010\245t=J\265\320\274\241\211\262\274\306\003&=-h\305\274@v\212=\014l3=p9\214\275\031!\203<\255^8;yFq\275\244\345[=\241\222\217=\017qs\275\343\274n=*~\276<1B\300<\314\361\212\274\266\323\240\275\355\210\216=\240`\224=\224\340V=\332\257|\275\347\316\271=\311\214\234\275\033!\254<E\'\223\275\252\274\254=qf\264<Kf\"\274q\254\261;\n.\'=\037]8=\220W\'<\325\301\033<\367D\220=K:\255\275x\032\245=x\242C\275\227\232*=u\340\204\274\340\326\246\274\322\345[\275\n\203\226\274\222\266\361\273.\263\253<\302Sj\275E9h\2750\307\210\272sk\220\275\202\301\024=M.E=\261\256\240\274\371\346/\274q\342\226\275{x\230\275\n:\000\273\330\213D=&\224(\275\263A\003\275\315\013\177=l{\211\274,\331\022=#\025V\275zc\321\274Z\000<=\321\002\335<\277i+\275\022\242\213=\213\341V=1\t\241=\'\267\214<\245@O\275@h\220=\332\t\273\275og\275\274\246nd\275g\345C=\336.\224=\213\002]=\323\373x=\373\254\223\275~\214\305\275\"\366\214\275\\0\210\275\010>\232=\221\272\026<N\375;\275g\275A8\263m\026:\0255}\275k\305\243;\022\220\215=\020#\000\275#)\217\275T\274\200\275\331Fm<\343X\224=\306y\237\275;\311\211\275BG\373;U\257\010< \264\026\274c\261\223\274\237\225\023=\365RG\274\217j\211<\371\243\215\273\034`\331\274\322\3511\275\260\323\341<k\233\n\274)\376\234\275\367\220J\274\375m\362\273^:\230\274b=v\274#pi<>\246t\275\030\237\252=\030\234\276\275\226E[\274\327\337\266\275\021\024\373<\215\036\322<\340<\036\275;%f=\317\nC<\213;O\274\336>\216\275\306.\001\275\000K\252<\366oP=\242/\310;n\236\300\275* \216<\302o[=0t\277\274\260\306H\275\211\036E\275Q7\232\275\210\037\216\275\223\214\025\275\037\264r=\223\252\276\275\210\250\007\275o\234.=\320\340?=lz\245<`\034\336\273\333\220\003\275QA\223=\242\323\020\274\350\366\257\275jY\257;\317\211\2039S\324\214<\311\247\025\275\027\217\201=\250)\303<\376N\307;\220\231#=\270\007\245\274\361\226\032\275\233\355\242\275\002\337\310<\242\'\243\275\003R\327;\016\333\177=f9\\=\236P\223\275\001U\324\274<Eg=k\364z=\030\023\225\274\257\311~=\203$S\275o$\270\274\220?\202=\242<\020=/V\211=8\327\013=\217\242\203=\316`\342<\177\215\203\275\350HA\275\364h\007=\r\3758\275\240n/=\021\230\023<Zs\210=r6\210=\375\305\232=\274v/\275\026\212\004=\326T}=\255\261{=\321Z(=\324(\336:\267X\002=\035\"#<\020q\004\274\000\211\\=\'\004\332\273j\241\344;U\360\227\274-\006v\275V\263\201\275:u\243\2754\274\216=\351a<=\203\223b\275\220\030\222\275(\235\241\273\377H\035=Z\252\222\275G\362\231\275j\017L\275x\333U=h[\242=\265\374\234\275\327\003\223=59\226=9c\372\274M\000\035\275|\225&\274\3023T\273\357j \275\035$\003\275\002\330W=e9\244\275\213\352)=N\332X=\341\272\321\273#\343\235=!\365\215\275\033\0279\275\234\345\212<\221,\225<\367s\220\274\251\265k<\003\265g\2759Jb\275L\016\034\275\257\242\247\273\374\331\261\275D}\005=\t^V;p\021\022<\323\n\320<\225\207Q=8\307\006\275}\031<\274<+\327<\314\352\201=\010Y\336\274\021\270\277\274\206\201+\274\204\345\267\275\022A{\275\343\264k\275h\003R\275X\3377\275\213\005\\\274\3357t\275\030\301\177<C\013G=\344\341\262\275~\376\237\275^\002\211\275\020F\243=\233F\014=\014l\251;\314\325\245\275\352r5\275m@\037\275\357\312J<\353@\241\275\250\227\246\275\206w\\\275\216>\227=j\355\276\275\262\013c\275\234\210m\275ZQ\240<\224\360j=\362\242\013=\206\024\031\275}\026\232\275i\024\206=\375\247\273<\263\016\220=\262\262\310\271\026(\234\274\362\251\033\274\314\315L<\356\2245=\r\014\237\275s\301\201=`\274&\275\361\372J\274\017\303\204\275\336L9\275\221\236/=\206\312\240=P\250\354\274\032\010\261\275k=\325<\271\356\214\275\3475N\275\343\"4\275\014\373\243=\310\005\303<\244\002\337<\326W\252\275\327\326\253\275\'\216W:\003\322\213\274oK\020\274M\020.\275:\251\231=!\036\201=X\t\364;\275\241X:ZW\335\274\350\325\031<;\201J= f\024\274#&\356\274\000\363!\275{(x<\215\262G=\357\331l<\211#\263\275sE+<G:\226\275\215\336\252\275\034\204\373\274\302\367B\275y\205\215=o\225r\2751\204;=\327l\320<3<\211=Y2M\274K+\261\275\367<*\275\212:\214=w\025E\274T\302r=\2621e=\275O%\275Y\362\233\275;Fp=\251j.=\252U\362<O\255\262\275\260\004\362<5\244\212\273\332)\354<\337\307k=w\267\246\275}\271\263=s\376C=\034\032\240\275,\336J<\305\355G=\346\315\033=\\\317\223=\r\034\013=\221\271u\275\022\261f<7\264\202\275\314\230\320\274\307\277\227\275Z\014\244=\321)\020\274)b\341;{=\224=\2334X\27508\017\275-\236\220=i\016\241<\307\017\264\274sVO\275\324^A=y\2450\275\\\357\"\275\016\226\274\275\323c\356\273\342db\275R\344\241;Z\3346\275o\364A=\373\304\203\274t\214\027=\213\260\352<y\302\205\275\363\'P=\006\017\371;\276t1=/7\"=e$\'=\374\377\263\275y\246.\274\033m\020=<\263\372\274\336V4\274{5`=R\3760=\344\002E\275<\351Z=\364/w<\334\215I<\227\217\256\275?\371\214=\200\322\224=\241\220\260=\307\245\023\275\357\230G\2757f:=\006\022\201\274\214R\230=w\252\247=I\222\226\275-\017<\2755\002(<\214j4=\"\203\214\275\215\246u\2745\'\201\275W\r\215\274\016U\214\275M\355?\275~\362\233=gbS\274\013\207S\275d\321C<X\331\006=\215{\306\274S)\231=\203\2666\275\013.\233=\325\302\027<VT\250<{\365\311\2729\330%\274\206\217\304\274\266\362T=E\215\355\2736\003\224=\235\223v\275\022kL\275H\345H=@.\212\275c\326\335\273\3414\016\275g\366\026=\005\236\200\275\"\257+=N\030b\274Q\211\214<\306\231\257=\205\245\204\275\325&F<o?@<RS\214=\007\253c=\026\n\207\275s\341\212<\003\363~=`\273\247\275\\ \001\272}a\\=\031\225\355\273i\347]\275J\350\222=|H?=*%-\275\235\037\232\275i\024\215\273jf\250<\2355\202<\230\212\271=\325+h=J\006\220=1\244[=\302Cv=\007wS\275\207\225\320=\2479\301\273\233\032\217\275\273h\277=AjV=\271\201\014\273\016PU\274\247fn\275}\310!\275_\357\256\275zT\017=\0037\007=\225\2737=\355\300\215=\207\367;\274\274\314S<04\371<\376\351\241=v\200\223\275\354\207\361\273i\215E=\234ml\2754\007\010=\355Z\025<\247\311\353;\366\006\310<\330\326D\275\240&\263<\232\034\373<s\\b\275\257b)=\320\252\330\273\324\372e=\267lX=\177Wj=<A\330\274\004\372^=\222\237\221=Vi\256\274\205M@=}\021(=\0343!\275\373\023`=**\r=\317S\021<\252\360\312\274\207`\035\275\313\240\202=Zlv<\210\265\306<\004\027\210<Gw\356\273\355\302\003<Gh\277<\022o]=\005\373\245\275 s\331\274\311\374\270\275\3300\251\274\237\020n=\354\256\325\275~J\r=\223\332-=\306\036\020\275\267\347\207\274\351[/\275`\342W<S\366\200\275\n\263G\275\244\313O=q\343\213\274Z@\004\275,\017\016\275}\352\213\275\346\347c=\2375\321\274\226e\r\274\375?\306\275\310;\037=^\307,\273[\263\243=\002\332\246\275;Q\253\275\033\232\200\275<\3068\275\325r\261\272\351\242Y=\324K\013=}\031p\274,\207)=\341\254\3117\335*\253\275\302\373\262\273\325\214\335\274\265\322\221\275!Wb=<AJ=_3\303\275s\325\235\275\332\352>\275\300\364q<\244\306 \275\006\204H=F\021t;\006\014\375<\353\267\013\274\355\357\216=\244\236\247=KQ\377\274\3133\207;\335Zs=A\300)\274\337\247\257\275u\274\211\274\364@\234=\364\213\327\275\357\005,\275\361H)=<\365\366\272R\325\203\275\032\030\200\275\221\262\022=\2253\304\274%i\265<_\243.\275%\376>=\255\276P=\237\033\367\274@\353\245\275\202\3070\273\202.o\275\206\200\330\274\323Y\017=r\202\255:\201\332\214=\312\361\341\274\246}\357\273{x\227\275\241\036\000\275\307\2773\275OO\230=t\265.=\352;N<~\226\234\275\016\303\220<\005\213\325\275n\204\266\274Zf.\275i\357\"=$\177V\275> \335\275p\317D\275\241\014x=\334=+\275\244\244\367\275W\250\001<Y\355\261\275\300\343\227=\371\322+=M\356H\275!\342\205\275\222\246\017=\372T\215\274\037fK=M\303\022=\226\021+\275\223\177\331<3\316\272<=\216\272\275\003sT\274\247@\213;,\014\334\274\202\234s\274\2533h=b\371\r\274\010\320\206=\350Y\037\275\200\320\n\275\260\326\027=\374W\213\275(\277\277\275>\262\247\275\305\223\216<\360\201\211\275\371\2361<\263\355\223\274\350\236\212=\343\025\224\274\206\216\274=\3529\270=L`~=\000rT=WV\205\273\374H\244<\031\201\252\273\373`\206\275\253\233X=R\204\331\274\215\330\203=:\371\376\274\341e\244\274\257*A\275[\261\300<\273-\230=\200\270!\275v\244\251=\263XW=\321\265\265<jg\307<:)\272=\344\265\363;\214\311\314\274\324_#\275\220\225\236=r\017j=\221\020,\275Z-\006\275$o\273=U\210i\274\353mB=\275\036\023\275hG\262=\350\001\270;\222\225\214=\235\335j\275\201\263\301\274\235\307\033<\356A1\275\361\216N=f`m=/6N=B\345\317\274/\333\215=\031\n\220<\313\350\r\274L\322\027\274\345EG\275\025\2306\273\260V\207\275\231.\223\275$\020&=\322\313\277\273!\315\256\273\330VB\275\347x\237\274\014\017\200=1s\240\275\211K\003\275\261\234_\275\367\002\221\275\346\200\000\275.\0347\275%\347q\275Q\033\265<b\271\216\275\335o\312\274\204L/\275\204\350{=~y\265\274\250lH=\n>p<L\243A=v\372\225\275\220m\261<\343\243]\274\314\302\202\2752\3533\275m#U\275\022>\232\275\232\255^=&\t\261= \307\241\274\316s<\275~\245\271\274Z\347\237:\333\3664=\'\022G=\366}\205\275\203\263\223\275K\305\037\275\311\232\025=\237\330,\275\266\365\207\274Q;I=e?4=\241^\347\274\033\225-\275\327*\224\275\225Q\221\275\341\337\334\274\276\270`\274&.\312<?\215\211\275`\037\204;Z\272$\275w\212j<\225\016\217\273\343~\001=\306d\216<le8\275\0364\024=\214\354Y=g]\246=N!\200\275\344\204 =\254\250\247=\227\247\240=\342ic<\320g\247\275=8\017= \220%<\246\340\r\274\224\337\210<(Fc\275K\202\234=#\014\002\275\025\343\006<f\231@=x\025\256=\347\230T=7\361\266=J\343\300\275\252\332\377<\016\225\263=\326\002W:\230\251D=\207\357Z=\246\314\264\275R9\035\275a5B=\300V\212\275\007u\016\275\212\245~\275\207q>\275M\305\242\275\361\006~\275\315\213\227\275{\032p\273\243 \216\275\345\247\202<\032\032\237=eg!=\270j\271=\214@\305\275\324&\251\275\007h\246=\331\336[\275\354\360\211\274!\230\014\275\324\001m=2\344\215=\344\204\226\275\321\351{\275\376\222I\275\311\343\212=\262Y\304\273\326\372C\274m\233~\275\352m\356<\367\006~\275\321\301\372\274\301\206\222=E\232 \274\036\242\004\272Z\215\310\274\364Q\363<\322\031T=\213\242H<\204\206\220\275\"T\262\274\244\232c<w\267?\274\264\212&=\236\330\232\275\206*\262\274\345\244\\\275\014\255\032\275X\357\030<\'\332\000;\272S\026=O\327\370\274L\\j=\354\352l=\323\342\200\275\373\373\230\274\225#\260<\010\303I=\313\016\007\275_\373\311<C\306\221\274\342\340S=\366\252|=\021\365S=\327m\266\275\272\336Y=\032\204\241=!\324^;RM\226\275\311\370.=\216r\340<b\337~\275Y-\222\275\014\323\r\275\264\341 =x\337\201\275\'k\331\273\352,C=\314<\016=\244\235x\275\265\315R=E\346\352\274/\036\262\275\276V\241\275\262\025v;\362\245\300\275\224\367\211=\343\035\212\274\324\257\200\274\023\322?\275?%+\275ft0=\224p\267\273\010O-=\332\r\211=\367$\236==\017h\275\373D\207\275\272\260\276=\322\007+\275\344\017\246\275f\226i\275&\315\217=\216*\022=\336\3058=\0003\367\274[\204\277<\341/K\274\006\326\n\275\\\354\241=l-b<\220\306\305\270$\270\r\275?##=\363|\034<c\3578<Q\241\344;\276\345\206=A,\317\274\330\210\211=f\241\345<\202h\252=V\265\212\2749@\204=u\237\355<9\346\210\275a\340\227=E\356r\275\032\242\214<\3009\006<b\335\230<\242QP\275^\321Y\275\t|Z<%M\251\274\323\001]=\016(S\275B\237\303\274\306\230\215\275\232\035l=X\030`=\033\325B<K9=\275-\242\313;\t\306\344<{\303\220<\367\245<\275B\276f\275np\200=\323j\301\274\312\177\232=5\327H<\341D\230=\312\260~\275\037\334e=bD.=\202\t\223\275\225\264{\274+\322\031=\324\372\017=\033\020\351<\360K\216\274e\365\333\274nz}=\321\337\206\275D\035 \274\343\303@=\321q|=\360XJ\275\032\361k\274%Q\302;L\221\222\275\"\217\224=6\326x;\036\"\321\274\226\233W=\330\233\210;\331\301L\275\t\257\247=\315r\345<\342&\032\275\274\246C<Y\002K<\227p\271\274c\303(\275)\260\222\274\226\346\320<^9\341\274\000\310\322\274-~\333<\022\355\020=\247\323\236\274\001\220\213=\225M\240=Ysk<\226J\200=\257i\317\275\'\236\240<\275\016\336\274r\204Y\274\311\2744\275\254w\021\272\306\234&=\237\336\374<\307\270l<\366t\332<{\351[=2\321\211\273\214\303[<4\025\235<\372Oi\274\222\007\201=j:t=`\003\262\274\243*L\275\216:L<\010\242\006\275W\021\313\275t\263\302\275@@\320;\20315=\330z\210=\272T[<Z\357d=\202r\021\275\330!>\275 \361\031=\353\233~=\211\t#\274\254\214\376<\202\275\261=G\t\315\274n\r=\275\302\232\257=\330\205\245<\247\330\310\275\017\025Q\275\255Tk=\364\311\024\275\230T\001=\263\234\016\275!\352\211=\230\035\"=[}\022:\352\001N<d\204\212=\324\207y\275\341g\2709\320\360S=\017\177\270\274\277\r\036\275\001]\213\2758D\020=@\017Y\275\276\233C<\314\302\235<3\210\017\275|K\224\275\010[L\275g\030\243=\201\273\201=m\347\240\275m\252x=\034\004\225\275:eN<\241q\222\275\212t\237<F\246\231=\310\273\025\275b\376\336<\351\266Y<\322\336\374<\253\267<\275\221\266\314=\302I\365=n`\252\273\240\372\322;\277m\237<\375\\V\275\2779\030<\230\374\362\273_\000\267=\344+\226=p9\225=T\350]\275\356!)\275\277\247)\275\251\360s<\201@\334\274R\305N\275\231,W\274\343e\337<\0303\210=\256\237\227<\277\023e\275\025\260D\274\347\017\265\274$R.=\357\375r=\273\2527\275\206\036j\275\206\227\233=\010T\310\274w\221\305\273\216\362H\274\342\367>=\023OA\274g\352\033\275N\274\321\274\022\226\232<6\306\272;\264\306A=\266\350\212<\322\361\241\274\265\247$=j\243\217=G\246\237\275xy\027\273\363-\r\275\226\302<\275\3750\210\274x\306\366<i\362m\274\027e\003=I\243\211=`A\342\274\304\007u\275oos=\270i\272<)nt\275\224\274n\275\331\320\317\274h|L\275\205\206\247\275\211t\207<-\243y=\243\337\307\274\020J\204<\304\010\226\274h\301\216=\036\000,=\211\t\301;\355\202\205\274c> \275\353\237e=\357\200\237\275WOB\274\035\256\237\275\023 \n\274\344\242\301\275M\274\214\275\211\325\334<\221\357I<\037a\252\275\365\222\240=\261\262\230=\256\266\303<\224l\206\275\345o\372\274\3516\240=\333\226C\275\227\225%=\326\322\031\275*\202\032=5n\020=\027\305u\275\260rV\274msS\275\376\243\017\274\306\351\252=X\235\201=T\225\227<\217\307\211=\2229\223\275\341O\265;\213>[=G\376b\275\365\2074\2741\217\264=\363\251\264\275\346C}\275G\261\236\275\347\370h=\336\016\302\274\221\266\214=\n\355\234<\021\251\355\273\020\272\277=\301\003u\275T\367\276\275\330\t\020\275\274\355\034=+\243R\274\345co=\3250n=\224\037\267\274^\313?\274\001\244\307<\000\365\365<\342\270P\275#\366\343\274\030@_=\234.\217<u\322\203\275r\r\203\274*BL\275\001z\234\275]\210{\275\247\000\201<\200\231p=\250!\364<*H\303<1\347\204\275\325j0\275\2043\227=\033\200i\275S^\374;\'\241\205=W\351\216\274Krz=.\213\222<\216\330r\2758hc=\224\233\024=\0366\365<\010\206#;\340\351b\275!\210S\275\302:G\275s\372\025=\321\211\'=Pj\263\275\177\213\270\275g\321\263=\031\335d\275\016\305\213=\210\247\267\275\005\374\303\275\324-\353\274\374iK=\311}\226=6\200\205\274\276Vj\274\246W\234<\347X\215=_\253A\275\224\345\226=(\006\210\275\304\001\210=\361R<\275\037E\245\275f\000\346:O\306\274<\302\213\021<n\223\204=\33342\274\345\260\306\274\363\027\212\275\244B\300<\361\227\372<\\\225\177\275\343\310\301\275\233\357\234\275\233K\232\275O\236\324\273x\\\230= \037j\275\277j\222\274s3m\275R\301V\274\022\357\233\273-\373\203<T\200\330\275\2340\333<T%\035=q=\332\274\332\001\207=\307\321\217\274\220\305R\275j\364\260\275G$\225<*:\201<\334\267\300\273\2304\203<kP9=\375B\235\275\275fg=vA\262\275f\205Q\275\247\013\021=\360>\032=Na\370<\n:Q=MG\177=\002ui\275W\304>=,\375\207<\036\241\213=\027\237\215=*\034\360\274\377\231\026=\311lR\274\320SZ=\206b\260=\2776\023=\270\365\375<\236\213\357\273\210\226\022\275S\3018=\232\266\033=\317B\204\274K\363\266<e\366\211=\014\326\007<W\036\002\275\255\221\211=BR.\275\245\t\210\275\370l\356;\201\237\242=\361J8\275\260\376h=K\035#=\271\274\257=\tg\031=\246\312\262<oB\223\273\005*\202=\214\003\210\275\241s\3038\r\031\217\275Zo\217=\265\3024=\210\222\346\274\030A\275:\025<\203=\\\272\'=9%|=bb.\275\277\265\352\274\245\230\017\275\325\275C==%\224=\362\335\200=\027\272\265<\273\022i\275;J\357<5U\250=K\020\210=\372\300\376\274$q\250=\256-\203\272\027\221\307<\\9\n=/\377\253<R \253=\365\352\253\2755\242d=g\271@<3[\254\274\330\216\252\275\024\371\226\2759jB\274)^J\275E\024\216\272\206\016d\275wv\030=jW\304\275\2377\230\275\374\001y<\207K\307<aF\032\275\264\206\371\274\3604\244\275\nK\235=\357\005b\275\036\030\324\274\353\303\006=\215M\257=\331\035\265\275\334\t\214=\215\254s\274xY\331<\214\0165=\227\256\214\275`\262\037=\004\261\325\271\210\335S\275\211\231T=\226\036\026<\2305\265\275\251%X\275\336\032*;\273;\275;E8o<\245\032\226\275<EB\275\264\223\036=d5\220\274\203\200\270\274\217\033\313<\\A^=\223j2<0<\340\275\316\347^\274\374\277\310=\3046\322<d\340\266\275}\036\251<r[\243\275\2446\240;9e\034={\334@<H\232\341\2716\260\225=\337\243\"=\2519@\275;\t3=\332p\222\275J<\206\274{\274\212=\216{\303<\261\256\204;iy-=u=\\\275\274uA\274W\350U=\322\305S=\276 \310\275^\007\205\2749\024\207\2745s@\275\034$\007=\320\212*=bG\003=\221\014:\272\361\372\310<\213H\001\275))m<Z\200\020=i\271=\275\346\331\257\273\034\007\311\274/\014\215\274\215_\203<\033\327\326\275V\245\201\274T\030\302;\267;\201\275\303;\241=\244\214\037\274@\\N\275A0z\273Bx\304<at\206\275\337\232\201:[\220\371<\234\263H;\222<\306=?\250`=7\025\261\274\3641P\275\367\010\350\274.m2;\227T\260\275\203p\215\272T\254\334\272{2\211;\354I:\273G$\022\275t\3505\275#\004\347\273.\345\332\274\300\014r=rU\307<\373f!\274\340\344\311\275\031\203\t\274uF\327<\322,\235\275\215\313\215\274\371\322\352\2714\331.=o#\265\275_\202\226=\036\313\350\273\261\242\030=\006\301f=D\n#=\252\242y=\365F\337\274c\371\030;\205^\245<\272hl=\261g\216=\323\307\227\2745A\232=\2165h\273\273\243\216=w\300)\275@\250}\275\242\347\214=\032\273D=\254w\237\275i\223\024=Ji\014\275\337\376|=o\014\223=\347/Q\275\223\307|\274\360%\243=\314\'\227\275+Nv\275\037,a\275\230\222\277=QH9=\211\357\332\274L\023\315\274r\371\222\275\026\020\220=8\330\025=\241\363k=d[\202=e\3269\275\017\216\333;M\342\304<r\331\034=\010[1\275\230\033\010=\310,\370\274\036\346\036\275\307\005\322:\265\3665=\311\267\006\275rm:<2^a=\3411\025\275\362\377m=\356\262\202\275\365\244\233=\370\341t=\372\013W\274>=\337<{\3473=\240rr\275O\026c\275\334\270\020=3\250\304<,\226\024\275\' \211\275p\214W=\344\234\305<{\027]<:d\217=G\362\356\274\236%\000=\300\242\020<`\234\000=\2319_=\250|\034=7(T=\276\360\230=g\355\n=U!\310:\005\032\245\275\\\017R\275\205\213\251\275\260\275\220=\200\375\201<|\320\247<\020z\357:\307x\r\275\315\006\212\275qr^\275\325!\205\275u\006\034\275\023\271Y\275\373*$\275\271Z\035\275\376\277\277<U9\226\2739U\207\275!\345\027=\322\027\206=\031\247\224<=&5=<\237\220=\3079\265=\300A\320\273~\242\345<\347\213B=\251\037\273\274\355y\003=\036W@<\377&|\275d\\N<]f\014=\305<\033\275\334\352\211;v\245\263\2752\255\371\274\302\215!\275*6\230\275\312m\255<\255\361\004=\275\005\352<\261\342+=\231\276\254\273\267|\205=\242\242x\2748\010P<#\0355\275\'f\242\275\206\253\366<\203\316_=h\337\235=\016ny\275\3707\265\275y\231\025\275\276\315`<\372\345\303\275`\363\025\275\346\221\363\275~Q\005\276\354}K=<\005\241=\022\276\255\2745\310\347\275?\007\326\275\212\221&=\360\221\204\275\202NU\275]\237\034\275\341\323O=\325\266\216=\014\211\010\275Y\2276=\035=o\275\262\035\220=\227B\241\274\3545H\275r\346u\275\350\301i\275\014\277\331;\357\024\215<\2457\264\275flx<\367\247\034=\203\201\236\275\014cM\275P\215\276<\2550\235=\216\323\343\273\251\357=\275\226\213\353<[\324\302<\237\316\367\275\035\253I=\202\r\t\276re\243\275\276\004\301\274Y\\z\274\371\235*\275\322\004\021\275\032\177\256\274\211@,\274)\317F\274\326\271`=BG\"\275J\274r\275\032\323Y=oQ\207\275*\255\\=\331\310\327<\027n\026\275\305\177\037=?\271\323<\334.q<P\006\266\274\003P?=O\263X\275U\355d=N<\177=\035\001\203\275R\255\223\275D\333\214=\202\353\243\273\030\313\307;\2178\351\273\335U\233=U\251 :\300\n\252\275\221CO\275C\030\217\275\340+\347\274\206\337\014\275\026A\365\274\256\004\027=\271\307\224\2750v1=\230\010\223\274\327\342\202\275\205:\024=\2366\332\274\314]\343;$\213\021\273\345Ni\275+\tL=^e\004\274\2109\354\272\007\023\242\275\222\010\026=\270T\222=\236N\230=\357Q\006\275\354\'\230\2752y\224\275ob\221\275\337k|=t\365`=57\242\275N\035\243<\345\020K\274N=\322\274\300\014\210<\237\252\364<\234\235X=>z\350\274k\276\225=\235\210\000;\262\217\260<\361\003\007=)C\212= \247\250:Z:\217<\233\201\251=B\361\236=P\033T\275:\240.=G[\203\274\265\262W\275\355\200\033=,\316\005\274\235)\202\275\2627\215=\267~>\275\000J\204=\037\255\276<\017\270\207\275\304}\300<nU\036\274\307\207\340\274\252\351a\274\nO\217\275\331\267\252=$\352@\274\321\332\222\275\0324\226=\250\265F\275\026\022\032:s#%=W\033\230\275\374G)<I :={\030\242=t.\016=\312\344i\275\333\364\204\275+\376\325\275A\220\025=NB\205=\245\306R\275\255?\222=b\001\246\275\266\036\266<a\332.\274\334\343\022\275\270\261\266<ix\030\273\245\021\272\274\310$\033\275\330\204\261=\207O\\\275\374\204P;\241\201\004\276\332I\227\275,\001\347\275\035f\212\275\253\272\312<\355c\202=\032\316\216<\237L\252<\304>\302\275\345#\013<\350\353\010<\032E\007\275\201\342v=u\263\205<\373W>\275\275Z\377<f\351a=\323+5\275\344q\301\274\307q\200\275\305\363&=\346\026\277\275\343K\032\275\354\221\215\275\000\375\212=3W\233\274>\312\353<\205\310\254<{\010(\275&\027T\2758\241\\;\245\204\"=\377\224 =t\207\371<\211\364#=\244\326\315<\373\246%\275F\257\231\275\032\263\036=\251\253r\275z\363\027\275\306\013%\275\377W%<\202\312q=~}\244;\333)\212\273\251\324\260<\364\256\227;\025\207\035\275!\026g\275\013J\201\274\313\236\234\275\267\201k\275xM\221=9\034\241<\03629\275K\366\347;$4\263\273\003(\020\275\304m[=\352\320\\=\311h\276\275\326|\351\274\306\205\223;4,;\275X\277\327<\020\254;\274\000\206\213<\327\257\252\275Rd\300\275\302\024\265\275~O <\010\312\315<|\036?\275\220\237\214=\036\374,\2741\n\205=\022&\022=\346\030\236\274\"\206\017\275\r\n5<\271^G=\350\314\371;>R\024\2751\326a\275\215/K\275\001\316{=\306\302T<d\257\360<T\3637\275\034,\320\274\031\246t=\310\251@\275}\004-\275\335]\003\275G)\025=\270\306\246\275$\367\252\275B\316\316<x\226O<\245\021>\275E\232\200\275\013sn<s3-\273\204S\004<\'\371j=\'\322\026\274u\366\213=\213\207~== k<\301\251\273\272\357\232\\<^u\274\274\246\315\250\275\003\251\250<]1\241=T\350\234\275\306\251\202=\\\272-\2752\261\000=\235$_\275%:E\274\360n\000\272\251\310\206\275\"@\330\274\317>\230<\300k\010\275kh\247\275\374\346\016=\2536\260=C\363u\274\3706^=\304\307[=\345\223\207\275\210\217q\274s-\002\275\t\377\255\273\337b1\274\242\3759\275\377\025b\273\274\363?\2758\271E=\030Uc<\370j\022=\265}\036=\245\235T\275VN\334;\317\314,=\310<\213\275\203\275\273\271\360\3375=\310\030g=\006\261\032\275\037Y\300=\200\236\215\275\2130\004\275h\016\276\273\013i\024\275\317\3778\275\230\334\025\273\360\017(\2752\031\227\275\345\241\003\275\216\202b=\013\374I\275e\233\027\275\243\363L:\247\341\\=\264\010\211\274\377\276a\275\311[\026\275\357\177\237=\224\324r\275\242W\324\274\301\021\235\275\2419R\275\013\314\212=\277\317\017=z\035\203\275\\x\002<\203`\235<\277\336\204\274\305\261^\275\247%\220\274\354\270(\275\375\017\035=\r0$\275\220\325\032<\332\204\217\275\362b\311\274\t\375\213\275\"\327\200\275\247\206R;T\241\201=\246\034L\275\253\203\223\2752\305k\2755>\303\273\250UN\275\317LS\2757#\340<\221-\t\275\311\314?;\016\372\216\275t\036\212<)\226!\275\332W\303;\212|\233=\257\221\303;Tl\254<%\3643\275\021\300\177<;\270\036=\004\317\006<\252\302 \275~\0049;\357`\224=\266\2775\274\000\233~=t#:=\037iT=\343&>\2756\303\303<\275\331\007=\376\242\002=\270n\315\274\2578\210=\302\010e\275r\313[<\177#K\275\326\304*\275pJ\311<\271em=\372\035W\275\375\214\255=\014,\234\274\245o\217\275\330\273\232\275\250\234\\=\027\303\210\275\344\224\210=\322\237\020\274e.9\274\026\031X=\207\330`=\2378u\275\270\340\250\275\020\252\260=:QY=\0143\214\275~S\253\275\024\252\031<\274\263\301\273\346nL\274\241\305\205;\006` =\342^\266\275X\227\347<r\362$=\374!>=c=\223\274\260<\225=\352>\214=U\234\243\275^\005A\275\201\264\256=\360#\210=;4\337<\034>T\275\036\305*=\260\350x\273&XV\275\225\334A=x(\026=\010\246\246=\354\223\234\275!\207i\275\227_\361;\215?\037<\365\335\203=\001|u\275MI?\275,\354\350\274\021\231\220\274\265\233x\275\017\227\203;J+\355\274\276\2777;\016*[=\006\024\242\275F\225k\275\370\342\016\274\214w\212=\032\024\001\275_\016\001=\236\355\355\274\222\225\223<z\034\371<\242{V\275:X\341;\0201\227\274\313>b\272\376\r\014<\037bO\274a6\216<\274\335\037=\034\332\250=\341W\206<\212;*=;f\240\275\026\246\325<\277\371==>\306\243<,\252\320\275\250\302\206\275\212@\200\275\317g<=\227Qy=s\n\371\274Il\230=*\004\013\275\340\024\364<\361e\031=\302\267|=\375U\237\275$5\225=\254\020G\275\216\344\242<\245\256\241\275\024\323\244=\360\275\241\273\264\326\023\275\323\240\240\275\264\021\303\2732J\342<v\320\272\275\323>\222={\022D\274\354\352\242\275\200nd\275]\317\237<.X\245\275cy\241\275\357MG=\010\220\001=P\244\007=NJ\375;\1772\205=\326\223\271<\276Z\314\275\277\362K=\013\323a=\277\322\027\275\030\350t=\327b+=\211Q\210=\335\3022\275\317\000\200;\302q\251\275\217\213\240=\242J\010\275\332\016M=k\307\234\275\002w\372<!\255j=\320\353\n\274\025\200\257\275\324D\275\274k\275\263\275\303\217\234\275>\326\204=\362\026\031\275H\301z=\2374\203\275\200\232\244<\031\326<=\200\231\342\273\360\207 =\030E/=\351\201q<\3725\256\275g<\264\274\013\277\275:s\366w\274\342\325\264;\257\271w\274\230\3756\275\3070T=\335p\223\273\331\006\255\274SF\327\274\014C\316<t[D\274AH\262=\216;$=\021\263\253\275CrD\274G\246\210=\326\271A=)\2436\275\305\317B\275\035\355\027;_\306\204\275q\307\271\275<\013\203\2758\2226\275\312\346|\274.\333\232=\265\207 \275\371\030@\275\356\331+\2752f]=\330se=\370\302\271<\347m\002<\017\003D=x]\200=%\234J=\341\220\014\275\334\375\t;P\320\236<\242i\010<\257\"\177;\364a\202\275\265\302\r\274\325\2507\2748\322\033=\225\241\222\275I`h<\271\360\230=\177\t\021\275\247\264{<,k\220\274\307\373W\275 ~J=\247\271\'=N\0376\275\310\036\243<\323a\230\275./p=\\w\205\275\327\364\270\274\233|\233=o\334\265=H<s=\217\346\232\275\007\332\216=\252\014p\274,KK<\007\376+=\216\334`=\355\250\205<\216F\200\273\350\325\240=_\231\271<V2T=\310qr\275\200\216\240\275\201\241\001=rxE:~\375Z\273\205D!=\016\255\253=\272\232\250=\335\017\366\274\330\'\241=\340[\216\275\251\302\235=\242\025`=\251\251\275<\262\344\243=y\250r\275\226\024:\275\377\177|\275\267\245\340<4\324:=\007\n\235\275\312<x=\265\2064=2Pp\275\215\t\302\273\313\241\231<#\356\204=]\326\221\274:f0\275\n|\233\275\364\200\304<\275T\344\274uTb\275\375WW=\000gv\275O^\223\273\213\225\206;a\030\334<\252\r\236=\252X#=K7\374\274^\035\217=\177X\005\274\n\265u\275\342c\022=a\371\306\273z\207)\275\355\207k\275\202\367p\275\367\317t<\216\203\313\274\245\373\r=\256#?=a\t\352\274\344\252L=\371\027\003\275*\035<=L\334\246\275\200\010\322<Fh\207\274\005mx\275/\002\262\274\n\n#\274\"Q\233<\221\342y=\036\332*\275\370|@\274\210\206\226\274\204\n\270\274\016\234\310<\030\377b=\267\304\256\275\255\202\304<\370J\316<\246t\215=Y\306O\275\247\353\034\272z4\370\274\314\366;=.Y\021:\3766\223=\005\021\013=\237\303F\275\327K\201\275x}l<\224\211\356<\334m\267\275\247\330\212\275\316,\250;aA\214=\2260\335\274\300\351\032\275\025,\205\274\267\275\262;\345\325\210\2757\004.\275S\371&\275\356C\014\274\006}\307\275&\006A\275\247Y\320<\342AI\274\315\342)\275_\231l\274\300\314\377<\327A\215\275\203\210]\275yT\020\275\220\021T\275\301\236$\275Y\337\r\275\227\021\376\274\035j\271;r\327\034\275\303k\326\274J\337\227=9\\\236\275\227 #\274x\030p\275\213\024\245=u\225\236\274\336{I;\253??\274\326)\177=i\333\034<]ZV\275r!\242\275\037\177k=\021\233\022=\032~\227\275\325\240A=&\2076=\346\375\266\275\262|\351<\242!p=,\225C\275\032F\213=\355\222D\275\271Y\204=\317\230\321:!\351i\275\013\007\357\274\331?\203\275\0339#<\344\022\202\275}\217z<Y&F=!\240,\275h\253\372\274\031\335:\275\333\245\203\275;\213\270<\247\361$;\247\037\037=~\304`\275\355\325\026\275\311\215d\275~\202\307<E\272\203\275\342\034p\275\0334\002=LaV\274\024\270\340\274\277\337\016\275\210\335\214<b/k\273_:\253\275\225\'X\2757\346\313;\320>\240=\tO\230\275\214\340\247\274\340\300\234=\014\234@\275\265\n\223:\302o\273=\352_n=e\305\243\274\3025(\274T=\330\274\250-\245\275\317D_\275\246\353g\275Q%\232\274u\362\236<.a\241\275\212\363\214\273\177\017\220<\341S\222=\350$\225\275!h\365\274\231\342.=\014\270P=q!\021\274\336Q\335\273 \313\315\274\005F\372\273_T\246\275i\225p=\373\351\037\275\257\224B<\206\200&\275\270Eb=\324\2169=Z=]\275o\302\206=2~\206\275C\303\217=4F\001=\364\324H<\354tr\275\262\\\266\274F\366\005=`\2131=\240j\205=\326\311-=\362\367\306\274\366\317\311\272$D =\2263L\275\303.+=\233\304\220\275^\307|=-cq=\274\021\007\275\261%\'=k1\263=\311UB\275?\335\006\275\001<\312\274\206V\205\275\224\243E=\312\200\233<\245\343B\2757\373\'\275\337\207\360\274\334\017\257\275\314\344\200=\227\314Q\275\t<\226<\345yn\275\"\266\214\275#>\206\274\353s\025<\246\254A\275\231,\245=U\215?\271\221\222R=Y;~;/\035T=\027*\241=;:\240=\377\254\207;\247v}\275U\252<\274\204\\\340\274\3673\020\274\315J\016=z$.=5\360\247<\203\352-\275\336#h\275Qr%\2750K\356\274\242&t\275\236B\t\272\337\243\372<\255(\032\275\010\360\240\275\306\205\210\275[}\003;\2133\220=\023\013\334\273#\206I\274k\234\333<#\221i\275\206\264`\275o\225\217\275\332\032M=\351\377\016=>\'\202\275\034\360\311\274V\027\201<w\005l=p\026\327\274z\261\223=\263\376\273<?\034C\275\003\241\306\273\3361\024=\316\016\226<t\235A\275\226\361\300=)\270\307:\317\340\233=\335\367!\275\224ee\275\332\325 =\233ip=\370?f=\365\210\303<\252\244\252=~5\224:x\340$\275\267Q\232=]\343\354\274\004\207\303=C~\225=\223Y2=\232\371\031=\004<\204=+;\272\275\n\206D=\366:\251=|\221W=#\221\205<\324\336\205\275\302\261\377<\024\227\000=o>\235\274\255LQ\274\276l\246\274:\321\241\274\275\335b\275\247\\\275=\302N\255=H+[\275\266\345,\275\005hI\274\331~\226\275\307wm\273\352b1\274\252\247`=~\227\007=\345\0356=XJ/\275\217\375\311<O{\302=\360\342k=\345\376.\275H\342\201\275\317Y\272\275\226~\"\275\304\343\201=l\335\352\274\220J\037=\241Y\240<\261\374\201\275I\244D\275wXo\275\231\376\373<\277Y\211=!C2\275\217\013\253\274\350\250\242\275\031\237\356\274\2735\214\274v\322\021\274&\374\276\272\000\327(<a\261%<I?@=\230U#\2751\203\246\274\\\017\235=\001 \251\274\264x\254=\333\314\234\274\310O\337\274n::\275:~\025=g\224\263;\363Y\017=&\306\322\274\261\022,=R\027N\275\216\004\327\274\366\207\200;\213m\021<\304\357\357<;]`\275\354v\237= WM=\363=e\275\306\272\265\275\227\030\240<\2274L\275\374\375`\275\020\\7<\252\321\346\274\360`\024=\325C\037\275\230\330\275<\216b\223=j(\300\275P\"\264<\270\223]\275\302\000<=\277\230#=\366\301\205\275\346k\205\275\312\177 \275\314\030X\275\337\375\235\272]$\3258\323!\204\274\245@\326\275[\377\031\275r\275\\\273O\225T\275\227+\224\272a]\217\275\233o\006<\010F\215=\222Z\264\273{\246\333<ri\032\275\205\364\225=\241\304q;\345\217\231\274\244\206}\275\203\003><\265H\262\274\306}\237\275\365\005\301\275\016\267\241=|\236\204=\304\030\022\275\354\333\241\275\337\210\217\275\357\276\\=:2\220\275\333\304\270;\354\036`<\330FR<s\022\233=\342\323\003=`(\221\274\375pr<6yw<\177\350\233\275\341\330\212\274\224f;=n\371\335<\362H\233=\244\357s\275\310\0062=\305<\026=ZhO\275\3036j<\305<O=\260\262\177\275\351#h\275\021\013D\275{T\200\275\225\344\023\275a\213R=\031\363%=\275\343\235\275\325qx=\215\315\'\275x[\274\275\255\0243\275\261\227^<\013\277X=\262\337\322\273{\374\223=\214\206`\271i\026\272=\251\003\263<\'\0261\275\304\024\245<\302\270\343\274\310\021&\274\230S\377<U\010\202\274\344\200}=\306\257\310\274\357\224\351<\361\232\326;\016\036\036<B>\033;]\343>\274\322\240.\275\2779==9\333\270\275\335\360\216=\235\242\r\275(\347{\275\240\260\316\274&\202*\275$(\264\274\237\245\236=\\\330\216\275sO\214=\255V,\273\367>n\275D\\\267\274\344\356N=8jy\275\\>!=\363:^\275\275\'c=P`\202<\007N\265<\033\333\025\275\034j\211=\270\212==0n\341<|\354\325=H\210\271=\372\254\026<\334:P\275*J\234\275\247(\276<\'\371s\274\336\307\017<\311.\263\275R@S=@4}=\004)Z\275\t\352\211\274\312\t\030=\032\320\225=\'*b=\224/\256=\334\005\200=\326\332\217\274\277\270\202<E\036\\=\002\n\206<\374\232\240=M\030m<L\007\365\274\365\254b\275\234+ =;\326\034=\271#-\275q\037:=\237\211\215\274\221\322\245;\302\366\001\275=\005`=\251\013\251\274\366\264\200=,\203\204\275|\223/=^\374\360\267w\235\262<(9\264=\300\251\024\275@x\223<UA\020=\307\206\212\275(Bh\275?\247\200\275:\307\200\275z\030\361<\031\331\241\275\n\325-\274I\004\010=\202u\257=tA.=\0202\235=y\030\312\274\375\275+\275Q\264\032\273\177\300\303:\317wg=\203x\227\275\025q,=\372\215\224=\3329\217\274\236\245\277=\256\310\207\275\376\240\335\274\252a\025\275r\241\376\274fd~=\323\370\035=\000\342\t\275!\241\234\274\347\022\370;\316\261\225\274\021\025B\275\336\357^\2758\335\240\274<\253Y=4\231\324\271\301\r\231\274\002\270k=/\305\177=5\335\262\270\316+^\274\350\246\242=\316\026y\275 \355M\274\002i\303=0f\003\275G\223U\273!\212*\275&\244:=\254\377\215=\\\036?=\235`W=@x\t\2755\343\307<\272\014\021\275\227\345\250=\344\231\235\275\225\370\253=\rW\340<4\003\r\273\315\310\276\275\213ki=\330\253%=\357}\264\272\335\242\004\275\371m\352=*\020\232\273NC\362<\224\236\255=\337\323\275\274\023\345\263\275u$\211=\216\036$=\307\\[<P\334*=\270+\204\274SF\213=\331\272\035=\245\325\301\275\037\247B\275t\246\215=[\327\021=\366\215\271=\306\221\227=T\313u=h\320u\275\244$\374<#\303)\273B\031\005\275w\016\3269\001\177\264\275\371\347o=\327\261\021<Ts#\275\355\201\236=\355D\303=\273\3056<\024\034\024\275\312\227\275=\275q\225=\342\230q\275\376D\315\275\245X~\275t\252\366;KUb=`\261#=\375\364\352<\000F\226\274\361\325\246\274\234\217\257\275\263\177\357\274\376\336\032\275\346\223\363\274Y@\001=\237\345\212\274\276i\341<\026W\365\274\264\210U\275\361Q\254<\002\357o\274]\'%\274\251\254\255=\271\276Q=\3053\232<\264a\"=\336\317\032\274\374\r\351\274K,(\275\246\265\326\274\326]\220=\331\010\243\2753@\323<mqz=\372\026[\275w\003\220\275@\356\014\275\251\t]\275\313\207\005\275\036id\275\325B\230=\213t\270\274\331\017\206\275\304)\222=\376\232\262\275\337\355\232=\232\232\240\275\340\251a=\227\021\003\275#\354!<\263\305\271\275\364\032\357;\330f\373<\241_S=)\032(\275\014o\177\274Q\247C\273\250\177\247;\023\010\254=g\230h=\002\037\017<f\2273\274 m\200\275\356I\345\273\321\361b\275#\201\257<R\344i\275\215\233\004=\376\\I\274\003\207\244\272E\231s\275s\303\233\275\263\320\215\275}\202\201\275\314\374\030<\373g\215=\254\264y\274\030\306\210\275\256\317\327<x\226J=\005\334\204=\251\242G<i\262\031\274\337\212q=\377s\340<\245\221\020=y\247M\275O\003\021=\337\362J<\376>\244\274\223o\007\2755\2023<F_O=\256\223\260\275\243\312\351<\036P\037=\371\375e\274E\032\225=\361\253\211=\r\261N\275\035X\264\274t\357;\274\241\336\241\275_/\022=+\213\037=n\232\001\272s\315L<\267\270g<\342\026\001\275\325\022X=.\233\007\275+\373\221\275\356\314\220<\237pA\275:\031v\275i\312U;5>\025\275c\343\312\274=\340\320;\373\005\315<Y\266\002=\n\314s\275r{{=\\\247s\275\270\001!=1h\317\272[\2150<}\321q=y\214D;\311v\t=\253\367$=h\310\226\275Ul\014=&<\r<\317t\030=\262\266\367\274:\264\330\275\023\335L\275\224;k<\227\221==S\025\000<Y\271J\275Fj-=\235p\200\275\t\364!:\315c>=\243B\315<A\337\246\275\212\374&\275\317>\203\275\256-H\275G|\250\275se\034\275(o1\2754\325\213\275>-o\273Rb\214\275\230-\025\274:\257C\275\276\252\002\275\335l,=\004\322\245<\214\333\202=S\333D\275#\375\213\275\001\355\252<N-?\275\n\230%=iR\276\274 \031\260\272\rc\236\275#\"\245<\277\005J=\252\230\232\275\224\207:\274Z\273\227<\306{\204\275\205\346\204\275\177\2178=\263\037\271\275 \026^\275\002Hs<\370\215E=<3\003;!\316h\275\372Y\347\274\224\256\017\275\202\272\256\274(\377m<\355\236\203=\334\367s=XW\232\274\'\023\274\274\226\352\257<\267\211D\275,\224\302=\217\276:\275\375\002\001=\206\242J=\237:\332<\323\037g=\204\366\362<\221\037\220\275:\335^\275Z\263X=\261X_=\250\216\254;\317\222\244\275\270\307\303\273/m\217=\034\300\310\272\372\306\252==\222#=b\341\202=\371\335I\275A\321\253=\036\350D=\r\365\304\274\036Z\371;W\350\215=b\217&=\025\364e\275\367Tv=\376r\034\275\364\257\244\274IC:\274\2111p\274\312T<<\r]\266=>\275X;\233\251\240=\240\250\354;\333\204<\275K\tv\275!\304\211=%\270\220\275\217\203J< |\177<H\342\223\274\3347s=\320\023\221=\343R0\275i\'\237\272>_\324<\241\221=\2759\306\234\273f\341\355<a\260\301<\320\345\207\2752\200\306<IN\255=\303\355$\275e\364O<\374.\351\273\214z\265=!\030\237\274\370\343\245<S9\213\27575\214;\242#\201\275?\350\034\275|R\312=\233\016X\275\376\256\233=\266\367\221\275W\327\235\274\'\\\016\275\350m8<J{S\274\270\352\201\275\317\217l=\313\334\022=T\276\230=%\232p\275\340\014\317\274b\341d=\225\326\250=\025\310\371<\221g\036\274?\272\241=\303\367\212\274\006S\236=T?\201\274\370-\\\274^\256R\275\3365\025\274\257\217\013<y\021\250=\021\252\340\274p\340\250<\217L\"\275\330\3329\275\343\275b\275\266\232\273<\311\374,\275\034\267\234=u\334\207\275\253\307k\273\\\314V<\223\037\242<9\300\220\274\233\276G<\\q6\272\241\365)\275\2005\003<\024\236\336\274\253pD\274UC\243\275\317\344+=U\203`\275Y\312z\273\2551`=yJC\275GG\345<\242\357{\275L\372\226\275\361\225\340\274,dN=\355+n=\276\207\274<\315\022g=\261t\355\273\016\350l=3\232\234\275t\345S=\334\020x\275])\034\275w\367-\275\270\330Q\275\215n\005=D`)\274v\245\201=pm\202\274\r\211*=Y\371\346\274X\340\356<\372+u=\013\331\267\275\255S\205\274\316\316\302\274aC2=\257\250C=V\035\367<\307\276h<\027\343\301<\372\321\234\275j\0168\275\226\036y=\300E~\275\246z\241\275\002#i=\240w\036=\315\317\203=[\t{=\004\316f\275\020\362U\275\267\355A\275\200\365\306\274\036\027\316<\211\307\307<\244\366\017\274k\027\026\275\336~(\275ud}=\347\313H\274d\356\017=\327\323\242=2-\205<\360Hw\275\371r\316=\036rD\275Zd\\\2753\237\201\273\210\355\006=d\315\242\274\331\032w\275\260\312\245=E\243\374\274\241W3=\372&\323<\356I <\312\324\312<\216k\270==\242^\275qn\020=K\256R<\010\212b=\373!~\275i\227^\275\220za=\303g\313=R\346\375<\321u\317\274\340Z\314\273\001H\352<:\355-=\377\371\'\273\333\177\226;\320\323\n=\347*\247\274i\361\300\274\243\372x\275\007\016(=\241R\007\274\240m~\274\230\014\230=\351\303U=\267\314\267\275\201\024\266<\347a5=\301[?\275\237\356\364\274\335\300\252\275\375\003\203\275\236\234\260=\030\244G\275\022\275\014\275.H\004<\322\323G=b\3535\275*\273\201<\013\372\223;z\220\330=G\2025=\250aY\275\245\207j=\2359\230\274\314\222\240\275\013\312B\273\301\325\275\275\202\003\001\274=\245\261\274\307[\217=n\322\273\274L\346\303\275\374\263\352\274\264\367\366<\313\247\242=\322\355\217=\357\314q=\260\003\201\275\234~\002\274\214N\303;\263T\241<\227[\201\274\032mL;\347\335\355:\"\307\267\275\2352\306\274B\245x=\377\335b=\230_\002\274\223I\025=\207\014g=\252\323\324\274\024w\000=\212_j\275\202\014A\275k\217\237=\221\035\001<\341\203\007\275\350\034M\273k\035f\275<\214\221<\266\261\'<\004\331B\275\277\332\237\275\202\246U<\253\016\205=\353\253S\275\370\007\276\2747\003\312\274\267\273\214=\000G+\274\341>\211\275\213\236|\275\357\230\026\274P\367\256=W\230\347\274\232\334\365<B/t\275\005\353\032\275w\3571\274\030@z\275\016\346]=#\rP\275\014\2469\275D\331\207=\343O~\275\204C\300\275\0202?=a\270\215=^\206\213\275\231\\\202=\232\214\235;\244S\204<\007\326\212\275oe\262<\002\250\227;\347\325Y=4\'\';^Q\245\275u\031\360\274T\376\223\275\217\t\216=u\005\242\274\365Hc\275\302*\332\274D\223\247=F\246c=?\233\242\275\024h\005\275N0\242\274YY\222=D\251*\275\363\n\347<%\031i\275\262.\267=\304\307\203\274Q\032a\275\017\206A=*\270\236\274\374c\275\274\207\253\020\275&+\212<\312\004\t=\247\363a=!\346t\274\031x\233\275P\335p=\016\372\241\275\2366.=\022\036\342\274M\326\220;\346\0076<\033_2\275\007\233\240\274\262Q;\274\341\002g=\021\313\263=?\000\204<\254\003\203<\030\'\177\2758\225\244;`\372Y\273\244/v\275u\206^\275.\362~;t\367\034\273&\006\000<\022\312\223=\342\364\217=\007<r\275A\253\223\274\206\371p=EGm\274+\343\241\275\024\016\203\275X\325w\275\317f\261\275\217W-\275\014\271\225\274dj\361<\013\207\"\275\027\276\210\275:\023\200<\232\023\267<\030\226\214\275k\202\277\275\364\026<<\013?*=AX\330\275\177\303t\275\243\":\275\275\360\231\275\032\244\257\274\326\235\235\275\016\206\366\274\366\022\356\2729\304\022=\004\336\273\274\246\"\377\274$\331S=*\364\205=gd\203\275&\230&=\213\340S\273f\000C\275iUn\275ic\217\2753L\214\275\262Q\326<\277\271\250\275\334M\211<2\214\325<\230%\217\275TI\205<\300%I\275\257\335\227=\317\261V\275\345\243\013\275\223\352\231\275\301\004*\275\204}\223\275\3705\006\276\007c\"=AsQ=\364g\227\275\270<\206=b\324\241\274m\260b\274\2455\212\275\355\343\340\275\343\315\330\274mc\021=\311m\037<\036{r=\013\216\221=n\274\253<\257\200\007<0D\002\276\'x*\2755\\\371\274\212+\325\275!\216M=\021Q\t\275\327\324\344<\367\007\335\275\322\306Y\275\005z\t=\374\242\362;\364\306\177\275\2305\363\273\014.\213<?\352h\275V\306\335\275&m\221=L7\316\272sT\024\275\253\362\227<\321\374\361\274\211Nu=\361\013\243\275\001\277\304<#,\224<\315\241\237=\037L8\275:$\327\274@\177p\2754\231q=\021\351\344\274\241\2243\274\232^{=<=K\275\302! \275#\236\020\275\301:\275=\237\240\316\274}\"\001<\005z\340:!v\332<\344@i\275+\n\276\274v\356q\275\177K\257=\332k\376\274\306\034>\275\253\004G\274\346Z\265\274P5H\275<{)=\000\000><\0070\223=\024\256,=.\027/\275\235o\206=snI\275\204\302\243=\305P\276\274q\026t\274<\322\220\274\253\037!<\365j]\272\367\271\260\274\325\344/\274\n\226\014\275~\263L=\231\216\217=,\356\007\275[o\326=\251\355`;y\201i:\327\270\356<-\376\213\275,\335\344<\224\322\201=\354\273\350:WGt<\227_\205\274\354\246\354\274\001<X=\366Y\201=m\033\223=\247\361\260=\207{\006\275K\304\234=P\241j\275\211\333\200=\226.S\274\343u\210\274f\236\017\275a\230\210=\270\331\366\274\355\004\'\275\356\013`\274nM\247\275\317\236\225=\261/\201\275\330\340\n\275\007\257\360\274\276\256\252\275c\0012\275\027\001S\275\332\222F\275sq\200\275\303 ,\275\036\224\341\273\237\315\242\275\221_\200\275\003.\341;\\\007\257<s\014j\275M\2253=2\000p=\222\240\241\275\262\365C\275\\\277\276<9wC\275\304\227?;\301K\352<\262\335\\\275P\235\230\2756\230B\275\274\3329\275\270\025\004<\004\264\227=t[\362<\316\354\364:\232\313~\275\325\253Q\274>\265\341<\353\322\235\275\210\304\200=:x\262\275\274\365\267\273C\301\356<\341\037F=\275\205\250\275\n\rZ=K_(\275\216\255\332<\250\233\303\274\262\353i\275\002\3678\274\230`\261\275\246.\202=\201bO=\301\375W=0m\212\275\270\220\223\274\022p8\274.\232\023=\266\376\022\275\320\357\023\275\345\353)=\317c\353\273;\343\r<\265*e\275\010\337\261<M\217\340\2755;\260\2751cU\275_ \023\275\215\223\246\275\325\2253=Km\357\274\221I\243=\016\307\211:\007\262\307\273\231\'\030<\216\207\207\2733d\304\274\007\365\003\274|q*=Y;\226\275V\204W\275:\242\000\276\034\r\233\27560\233<H\372\020\275\240\300\037\275\036\024\310\275i\305T=\'B\246\275}j\221\275C\240\356\275\366\317\354=2\032&\274:\342\205=\331\210\201=\r\370\226<\003\"\227\274\225\023\006\274\365\267\311\275\340\263\333\275\261$\004\276\341\2748=\027{\273\274\016\224?\275\233\001\315\275\212\257\002\275u\373\216\275>\0243\275\276\347_=\014\026t;eWM<\345\006\216\275\"!\007\276\005\3153\274E\271\265\275\\h\221\275\336\313\"\273@1b=g\264H:\321m\247\275\246Cx=i;I\272\330\267\211=\270\004\343<\302\020\366;l\274\233=\'\270\200=\332\260j=\264\206\350<\207\371\002=2\360^=O\274\310<\016D\006=\276Q\345<\202)\367\274\035q\007\274\376\0323=\2533\212\274\275\223\006=\345\213\204=7\320]<\2063\237<1\357\265<\206\212\206\275\226\"\203\275\352)\260\273\332\2760\275$\221\212\274\255L\216=`N\033\274\220%;\2753\323_=\371Mz\275\375.x\274\353\212<=\260\201\272\275\271\356j\275NC\027=\202E\210=\311f\204=2!\236\275\247l\246=b\302\373<$\325\033=\313D7\274P\340\240=1\232\315\272\360\t\362<E?\236\275\001^\027\275!\321\036;\004\235==\007\3437=:]\314\274I\177\242<\242\033\361<\2055\n\275\366\025\032\275 \327\206\272\251\2120\275\024\233f\275\306w\214\275\306\203\216=\244\266i=mp$\274\370\221\025=\332\216\201\275\253\365C\275&V\243\275\324\266\230\274\317\357~\275;\215\003\274\204C\367\274z\022\351\274\230\300\311<\013^&=\201\243@=[\036\265<\025\001v\274\023{d=\344\256\207<\202\234\207<jK\214=Sh\216<]\253\002\275\033MJ=Z\3633=u\002|\273\202S\212<n`?\275\377C\370<\241e\002<\317@O\273v\206[<vt$<i0\315<\230\363U=<\245.=\000R}\275 \333\203=\373\237\001=\375(E\274\200K!<\367\321\220\275q?\324:I\252\303\275\253\341\312;u\271\342\275(\247\004=\207\361\352<\304\217\303\274\315\\T\275\213?p\275\213\267\264;\305(_\274\227\326O\275z\215\335;\205\007;\275D\266\200=\322\013\366\273\216\035\222:B\006\202=\333\220U=\025\206R<\367\320v=$\301\221=\300b\241\2748\255\030=\333\342\257=)=L=N<\231\275I\252\177\275\370\211\242\275\225,e<\3350v\275x\002\242;\333\273\343\273\006E\303\274U\312\200=\334o!=\300$\204=\370E\256\275\307\220M=\251\252+=\254&s\275\031,\332\274\254\014_\273\362h\304\275qT0=\2653\237=\251\031\270=\213\270\246\275<\017\224<\002\266\215\275\370\r\022=!\306y\275Y\004\024=)_\017=p c=t\255\\\275>\241\200\275s\341\211\274_\356\026\273\225l\246\275\216y\177=%\225\201\275y\222\364\274\2352\006=\362\311\203=\250\317\007\275\315$\200\275\307\352\327\274\001\372\013\275v\235\250;\330oN=p\313\020\275\212\031E<F\210\016\274\007\216\266;\034\277\341<\316d\025=B\235\221\275g\351\372\274\257\017\236\275\016\300\222<\303\2570\275\274\367\371<\024\333\231<\260P\344<\352\2203=F\023\201\275\353\355\241\275Y\240\222\275\241\322\206=\027A\026\275XB\234=\217N\361<\222\335\245\274\247\362\005=mGe=xaE\274\034\000$\274\266Hg\275\013\232\310<\216B\254\275j\244E=$\037\001\275\257\332\235\274\014\"w\275\215\254\304\274\231\332z=\\\337\030=\250\270C\275\002\034\022=\033\240\240\275&\204:\273\"\245\261<\364\024\360<\202\204\204=\333j\330\274\224\314 \275\357!\225\275\013i\216\274\244z7<\333\014\204=\241\005f=l\220i;`7\023<*\352z\275\031QO\275\007\310\246\275\301N\254<\020\320\026\274\010\000\225=\247o\250=LeS\274\311l\010=\343\023\266<^%\025=\377\357\212=\3404\240=\203\341\277<\rJ[=B\210\372<\377K_=\000nu\275\361\332\236\275\347\307\367\274!14=\314\023\224<~\027=\275#K\021=3\213\366\274R\030\217<\26270\2758\225\206<\323\\\322<\342O2=\3045\312=\333\n\006<6\252\235\275=H\226\275X\264\246=\3139\236\273\310\264\330<\377\362L=\342\306\375\273\235*g=3\320\237;&\215\235=\321\334^<\315\323\343\271\\\361\201\275\372\346\032;\367\327\013\273o:\277\274i\227\026<\255  =\na\252\274\212iZ\274ve\223=\247VK\275e\321l\275\242\201\317<\322\034\236=\227\372\002=n\212B\274\320\370P\275\216\207\223\275\r\243Y:j\273*=\233$8;\315\"\227\275\217<\003=\2364\236\275\242\250\232=?\310\237=\004\200\217\273\270L\007\275\177\202\245<\004\254\002\274\320\235\022\274}\327\034\275\372B\240\275\302\316\360\274\374\245A=\207\253-\275a\243&=\370\306s=C\350\316<\365\213\230=1\242\023=^h\365\274dj\245=b\261\244\272\031\017\227<P\"\026\274\256o<=\357\177|=\301\207\326<5\364f=6\237\234\275\253y\245=\300\336\207\275\311\263\230\274ROl\275/A4\274\275~@\2751u\034=w\022\367\274\354sv=\214\247\263<\250\316\030\274*\001\237\275J\245\036\275\236\361F=\352mN\275SC\376<\201X\246=\3128\260\274\305\335\003\274\220\365\214\275\212\311\020\275\322\367\203=\t\364\254=\217\206\216\275\324\201\005=]\254\014=\344\245T\275\371\034*=\371.\321;kH_=\246\013\255=\263@\361\274\207$j=\320I\r=\353\016\020\275gdi=\016Y+\275\023[F=5\003\206\273\370\370y\275\202\323^\275 V\230=\222\244N\274\244\025%=\246\215\260\274j\261\202;$\001\r=[\365\311<N\236\\\275`f\204= \343\243\275t\210\225\275\225\337o=5\251\373\274N\275h;\330\340\236\275-B\033\275\311d\274\274\205c\017<\315U\320\274\231\206\240\275\236\313\010\275d\3572\274Z\312%\275\005\332\030=\310Vq\275\304\330\247\275\251\315a\275\374\310\354\272\322!D\2744\232\321\275\252\t\265<&\t\256<\207\277\221=\247C9\274\030U\002\275\350\302\023\275\223\022\223=\301D;=\240\371y\275\027\372\263\273\024\215\024=\375|\345;\006T\333<\230~\262\274\n\001\313<\375\242\215=\207C\227\275\366\250`=\215\224\245\275\355\221\204\275\211Ey=\312v@=\210 \272\274w\r\205<\300g\004\275\215Y\244\275\232\322\275\274\327\013\227\275[\2561=\370\031\231\275\234\332\025=\264\273\200=\003\037\221<\'V\013=`d\220\274\330\022\303\275P\261\025\275R\201r=\242P\300\275C#D=\271\366\242\275o\276\253:\000\347\304\274R\002&\275\313,0;\372\233\214=s\205!\275\025\324\233\275\274H\266\275;\373\334\274v1|<7W\343\273\021\223\177\275\355\311\r=\317\372-\275\035\002\027=\022x0\275`\000\347\274\306\235\226=R\276\270<\033\212[=\321^\246\273\345\322\r=\205{*\275\003\002l=\245\357\261\274\340C\340\272\312\233\201\275J\265/8\020\003\252\273\233\314\030=\230\335 =\305V\223\274\220\273\221=G\363\210=\224\005\256\272\347\316\231\275\3521:\275\003c_\275\351J5\274\307\326;<\024\202\376<M{Z\275K\303\235;\375\355\023=\334\316g\275\364\3611=\303\230\354\273\032\327\226=\177W\277\274\277\225\224\275\257\274\270\275\242\244\274<\010\336\204\275\330\305n=l\363\213=\252\273\246\275Z\375\005\275\227,\335<\000\366x\275(\256\230=Nwh\274\033}\\\275\n%\366\274\210\214\205\275\r\264i=|\370\217=\177\222\240=\266@M\275\344\n\n=\376\221\000\275=\030@\275\267\330,\275~4\367\274\346\220\246\275\261{;;\236\277C\274j\010\036=-\343a=#\013z\274\375x\364\274Q\020\235;I\207h\275!\320\227\274\030\212(=gm\205\275\370<\345\274\347\265>\275\256F\336<\020\031\024=m\020,=;\343U\274\200\315\234\275\224y\200=hEk\275\223\376\010=\330\353\023=8\003i\275\3435\204\275q\023,<\2638\252=/d\255=\232l\243=E<h=\304\262f\274\215\252~\275\3601(=\336\216\204\275\240Q\020=\354M\207=\013#B=\277\246\227\275\024:\022\275\351cZ\272[{#=\205u\212\273J\202\242\273H\364\001=\364?J\275\366wN=\204\317\014=\026\247\232\275\000\256\214=\310YI<\375&\333\274j\210\262<i\327\022=\345\024L\275\367\026\371<C\374^<\006iF\275W\316\222\275\300&\363\274\245-\027<3\202\374<X \265\274W\302n=\265N\217\275\361\2060\275\226K\210<\240i\262\2750\324\032=\037\207Y=\260\303m\275\241\262\244\275h;\026\275\010<\315\274\243\366\205=\036>\031=\305\302:\275bo\232<.\006.=\276\362\022=\246\335%\275=\346\271<\212\365~;L\274\016\275\034\020\026\275Q\377\270\273,:-\275m\200\210\275\270\315\3168G\257^\274\364\033\234;5\021.\274\367\347\237\275\236z<=\254\021\210=@\335\301;nw\032=_\031\352<}4k=\221\236\013<`\234.\275\256\016\242\275N\376y\275\035y\227\275\3235\206\275G\234\313<\333q\247\273\334\021\213=z#y\275St\225<)\032g\275\216\000?\274\365(h\275\002lu<\203\203\001\2759r\227\275_\207\006\2746G\317\275\260H\312;mh_\274\366\332\224=\223#\212=\003\347\315\272w\210\257\272\316\344\241\274H\222\005=\035\032\016=\253\363g={5)\275\222k&=\207k\214<r>\033\275^\267\371<\266\235\227\273Z\021C=\307:_=-@\203;v\220^\274\026\226\241<\273^\312\273zo\006\2759\234\304;m\"\212\275\035\376\020=>{\235\275\222\316\335\274\3308\265\271u5Z;\\\273\212=\3732\014=q\271\255<@+}\275\314\241\247\275\331\305\t<\242\233\247;\207\262\277;\177\207\204\275cGN\275\226!\240=\267\212\013=\266\373m\274\204>\264\275\236+\231=Q\260%=\330I_\275i\302\307<\035\344+\275\026\234\014=\3573\335<\207\344=\275n\240-\274Q\\\020\275\246\020\222\274ez\211=\200\332\235=9\232N\275t\322\312\275!\003b\275\006\244\330\272t\242&=>\203 <\245g\374<\221\315\206<m\3359\275<\364k\275(9\223=\202t\233=Vm\214\275\000\373\023=P\366<=LP>=\243-\302\275rV\375\274y!\266\275\033\260#\275a\275\201<\211\003\021<\374\366\255<h\0222=x\027<\274\276O\255;[\311\260;e]\035\275\367|\241\275\252/\003\275{m4\275%\213\003\274\260\251\267\274r\031\t={\240\216<\361\376\330\274E\352\022=D;\342<CK\n<\\\315\331<\325\022\211\274Q\033\215\275\206\342\264\273\321\034\254\274\245[\210=\021\207e=\016\021\n=\256f\363\272rU <\337A\225=\223\246\316\273\330\352\226\274\372\017/\274\202!_=\270(\236=z\273\200\275:\\\206\275KER\275|R\241\275Wi7=\311\345\202;\364\211V\274\312gg\275\001\210\254=\022w\257\275\267\030]=s\224\037=\223\345\221=R\207\214=A\200^\275\"77\274\354(\214\275\350\271\301\275\233 6\275\360\263\226<\026\\\205\275Q\014g\275\204\267\235\275\314\'\213=e\276\215\274\224u\002=\314X1\275\370b\231\275\"B\033=\313\200\356;\037\334l=T\252\270<\315\272\262=&{>=\215pQ\275\301\201\233\274\310\303\365<\366\3140=g\007v\275\200\270\t:>?,\275\264\341_\275\014\204R\275\264\206L=\217C\327<\264\034\215<\256\325\356\273\311]\337<y\216\207=\371p\024\275Myb=\016\260@=\207\035;=\001\300~\274\351q\252<<n\030=\263\221\210\275\336\367\203=OM\216\274\366\263F=\003AY\274\216di=<\016\240\275\254\217\256=\310\304\225=\362G\204\275J\2660=\347W\262\273\327\215\365\274\240uO\275ox\206<3q/<\274\007-=\"\215H<\226\354V=~z\233<\010O\367<\330\321\317;\225\204O\275\361i\261<\340\271\000\2756-\252\275\333W\253\275\367|$=8n\207\275y\216\355\274T1m\274\2520\037<&\327!\275k\250\217=t\343\311<4O\224=ajS=\214\013T\275\317\364\227=\304\345\222\275\205?\010=49h\274\304\323\230\275\'\356\001=e\233\310=\364S*\275\332\300\236=\242\242G=\267v\273\273\022\266\234\274\034z\237\274\342\2373\275zlB\275\200I\275=\037qS\273\007Ot\274\300\004&\275\311\177\025<\313\344\250\275\246\273\326=+.\224;J\345J\275\tr\255\274\210\'\020=hC\000;\302\250/\275\202\363\217\275v\236\261=\353\314\300=i\277\214<I(0=\325\205\036=\364R\n=\231J\220\275Jk\236=\223\227\361=\311q\206=\364\342\206\275N\230t\275\321k\302\275\344\331\035=q\340\206=BH\323\274>\240\370\274\342m$\275C\367\204\275/\027\354=\t\201,\274N\300g=L:\005\274\32343==\276E\274\371\360\222<\234O`\275n\202h=\304N\226\274\225\2601\275\245\275\261=$\250j\275\227\210|\2751\177\200\275\234\245\350<O\315\227<\270\270\217\275\323\223\177\275\245\020\035=\362\211\002>\361\320\264=\3351\313\2754<\271\275;\347\334\275\320\007\226\275\344\225\222\275\037\037J\273\210\222\250=\010ao\275\025*\036\275\277w\016\274\276\003\227<\375-<\275j\247\342\274RJ=\275E\260o\275qb\257\275j\351\033\274\204JR;\355\031\253<B\336]\275\373\311T\275\377\371\370\274`\n\313\275\356\006\216\275X\370b\275g\\5<\313\177\214\274&\3008\275\366\036[\273\222\274\362\274\302=W\274\367K\030=\'\2303\274\236s\013\275\330\247B\275+rM=\251\207\204\275\270\363\327\275=\034\255\275\345\330-=w\313\317\274w3g=\n@~\274\257\244\307<\316~S\275,a\264\275\214\336\315\274#]\241\274?\357\227\274n\0350<\276j\223=b\273\226\275\003&9=O(\213=\216?>\275\245\340\272:g\0022\275\0367\021\275\237\274^=z\247\031=\026\263\003\274T\252\205<\215\332\301\274/_x\275\311\375\245\275\232\310g\272t\206\355<\\\354i<\032+\037=\266\375\014=\005\026\252=\004q\037\275\375\335\267\275\261mx=p`\275\275i\230\215<tr\251=\367\247\213\275P\307\240\272\224\302\306<\356\252\030=\017,\223\275\253\227\336<\325S)\275\242\303C=\361S\221<\372C\240\274Z\n\227\274\307\243\271\275\367k-\275\267\013Y=c{d\275\025\216\367<c\370M\275\023)\257<+sy\274WZ\227\275z\2152\273\251R8=cmd=\010\252d<\330/\231\274\354,&=\246-\200\275\370/\371\272\352\207\007=\355\374\312<[Go\275\204\310&=$!\337<\236q]\275\237\244\251=\334\353W\275\227\353\243\275\027\353\236=\221y4\274\211\214\334\275u\326\243</Z\247=\202\003\221=\331r\035\275\316\035\230<Yn]<dG%\275\014BR\275N\230b\275\222b\252<\307\212Y\275\032;A=\276Bd\275\230K\007\275\207\351\202=\373\020\263=\232\201\330\274\321\024\234\275;\002@<\022~8=O\030h\275\024\330z=,#\304\273\305\270\242=\342\377\241=\234;A\275.\204r<e\357\261=?\255o<\251\272V\275t*c=\373\254\236\274\234\206x\275\222\313\205=\270\334\277<\222\261W<\351\355\243<\367 \333<\203\327\203\2757\177\241\275\315\207\205=]\312\227=x\255\336=\323\246{=qo\010=U\353\342\273sE\022\2753\235\210\275Q\240\241=\245\002\177\275\312\246_\275\224P\220\275J\274b\275\351\274\247\274\234\316\363\274\361\002B\275\032\336\224<\274<?=r\371\263\275\313mA=\\/\242=x\220\251<\034\320\217<\217\022\213\275\037\215\223=?\017\243\275\22308\275\037z\013=}l\205=\"\216\n=\327\t\270\274\007\370\221\275\020\252z\275\256\375e=\350\023\271=K\312V\275\324\244\203=\355\245\204\275\020\025\274\274/T\231<\210\375\243\275\310\023\301;\3017W\275\216\t*\275\303j\034\275\177O\301<8\346L\275\250\010\'\272\222\201?\275\365\263^\275WX&\275\215g\360\272\032\323\243<\314\266,=\273e\273\274d\320\006\274I\335\224\275\373\222\207\2758Uh\275\206\322\225=4P\225=w\'#\275W\036\251=\373LT\275\\o\225< \270\036\275N\'\001=\024\277\"=\365\336\024\2753P}=\023&;\275\213\305\240<\355\233e=\25428=\031w\210=\265Oo\275\307\025\301<Q\356\014\275E\177\004\275\220\273|\274\216\274k=\r>\234<\3306\273\274\350H\224\274\010\027\343\2746L2=O\251\226=X\027m\275\266\333\024\275tCk\275\257\365J<\210tL\275I\001U\274Ow\214=\364\305\034=J\0363\275_\244\266\274\375GT=P\001H;\254\r\223\274\223B[\275\256\235\225=\377\327l\275\231\232\252=_J\206;N\337\272\275\033V\315=v\r\306<\022\020\245<\251\t\241=\023\355\232\274\367@g\275\243c\253=\314\225)\275\340<\222<\241\203,\275lq\016<[y\266\275\312\025q<\210\215.\275\371@\207=\346+\364<\305\203\344=\243u5=\372\324\237< !\207;-\332\201\275n\t\247\274\206\245\034\275\244gf<\363<w=\375\231@<oH\306<7n\372<\024d\361<\334\241c;\362\244}<|Q\034\275m\312\035=\253BK\275\302\347&\275\230\230\325=\330\266\022=\365\013\374\274\206P\305=\243+V=\314h\242\275`\202_\2752\310\253=\223\'\231\275\3421\320\274*\306_\274e\2570\273\271\321\256\275\372\021\027\275\200A\271=\240!\"\273\355\211o=\360\322\353\274\326\265\273<\230\346;=\357=\261=!\272\000=F\334\245: \340i\275\261f\016=Y\235L=\365\331\320\273\005QN=\022\n\253=Y^R\275\246\213@=\357fS\274\266\266\265\273\213\216\203=\023\313T\274a\257#\274I\315\375\273\374\0371\275\242$\230=\322\307\366\274$\241\036=:\n\0228&\330\204=\363\322\211\273\013\033\343<IW\020=q \201=\321\274\266\273K\305\325<M\271\276\2733\225z\275\002\240g=\230&\225\275a\267-;\270\303Z=\030\010n\275#\323F<\301\340M<l\3504=\001t\250\275@\312r=XFw=:\013\306;B\r\222=\326{\202=!\204\312<\347J\245\275\255p\221=\300\364{=\326\271?<\325qJ\275\311!X=\335\317\262=\360/\214=E\346n\275\372\230\006\274T\3139\275X\246:\275\367\2640\275\031\237\315<\227\332\013=P\345\007\274:\346\227\275\212\016\n<=N\177\275\014\013\307\274Ph\227\275:\000\314\274J\373~=\345$\227\274\240\027\003=\021\343\311\274\036\220F<X\212\310<6\371s\272\270#\234<>\371\004=\246\210\254\274U:O=\353\034\300\274\332\226\223\275\177\365\221\275\370\240\237=ebq=\326\266\253<\343\262\345;4\232\323</\260/\274Y^\244:S\352s=[\202\203\275\014\362\253\275\250}C\275\244\031\013=_\315\314<\255\177\026=\333\340\262\274O\374a=\361\371\225\2756d\251=,\346\207\274\006\253D\275\024{6\274\n\300l;uM\214\275\212\301\005\275\205\3710\275\335X\224\274/\205\360<\313<\017=\214\211\244;N\312\336<A\270\222\275nAE=\337\252\257=4\305\246=g\364S\275D\\\030\275\240\232\210=uq\263<\0036\t\275\315?\031\273\335\253\027\274\317\374t\275H\244\245<\246\345\034\275\216l\025\275\240{~\275\245\000\236=S\217\341<\342\211\202=nk\325\275\301&\033\275\310\320\315\275$,\220;S6%\274\200o\364\273\254\022\214\275\335\0328\275\321\032:\275uU\325;?\326\224=\034\235\207\275^\302?=\010\016\216=@\355\231\275V\352\273\275}\254\357;{\340 \274\t\326\247\275\023\365\222=\311R\r\275G\331\264\275\241\373#=\224\355\224\275P<\320<\251\340\252<\344r\201\274\2436K=\215C\212<\334\233\035<\315\324\215\275\357*;\274\031\206\301\275\370\\W\274\305\2576\275\353\341C=(\210\t\275Z\237\211\275\307\014y<R\316\245\274\206\3646\274\026G?;mU\333\274\224\315=\275\016@;\275\231\243Z=O\036L\275{D{\275\341Vw\274\025\222\222=\005a\255;\025\226\030\275_\353\314\275=\261\210<m:\031=\353Z\341<\302\336\205\275\317\317\240<\006<\270={\215\220=b\2727<\025\321;\274\n\222,<\264\356~=\202Ji=\345kW\274\212_D\275\016\027*\275\301\205+\275)?{\275\367\301\260=\243\233\033=\315\306+\275\030\004\177\275\314\262\317\273`\246\232\274\003f\347:\304\210B=\275p\337\274\244#Z=\371\346\205\275\267v\300<\241B\324<3+\236\275\224r\236<\215\216\251\275\t\306\322<\211\340\200=e\2613\275\260T\207=\321\263\230=\263)\373\274\3772\343\274\324\354w=%5H=\372\342A\275t\312\016\275^\273\264=\342\310D\274|\260E\275\014\000J\275u\035\303\2742\200\025\274\316\360\207=mC\207\274\255\342h\275Sm\240<\241\t\270\274\346\312\024\274\275\024P\275\027\235\207\272\277\342\274\274D\t\245=\354@\207\275/P\001=_Z2\275M,\372<3\272\324\274\336\320\327<\315V\212=\035\260K\275\200!9\275\355D\207=4T\016=x\253\010\273V\350P\275\\0/\274\320\346c=d}\323<\006\221\210=.\351w\275\244\322\324<\030\316\r=\307\301\232;\260\255q\275\215q\010=6ko\274O\210\343\274\035\003k\275\022/\032;\327=\002\275H\316\031=\244\034\212<\372d\026\275\222?\213=\233\022\214=N\016\241\274X\250\234=_,\'=3\030\370<y\'{=j\332\240=\355G\234\275\000\376\222\275S\342\251\272\352\373n=\211o\341<\273\254\211\275\320z\321\275\207)\262=\033\337\200<\033Dj=\244\364X=WW\233\275\245\177l\275Er\210\274F\221\351<\262A\032=\021\206x<iG\266<Y\007+\274<\365\210=\207g|\273\350\002\216\275\223\032\234=\331\300\341<5b9\275\366[\216=8X\234\275\273\020T\275#[x<\333\017\230=L\355\223=\330\021\216=2\205C<E\315\233<\016\205\023=\351\000\031\275\371#\000\275\341\204Z\275.\203\0179N\365c=\364X\245\274\305Ey\273\337\002\246=\r\273q=\257\205\377\272\340\362]=\360\331\030<X\275G\274\022\227\302=f\365(=\3516X\275\353\372\341\274\343\016Y<\204@\200\274\256\215\327<\307\3637\275(S\270;\317w\252\275\322\256\205=\3165\036\275\t\243\245\274\034\377\223\275\377\3540\2753z\204;\254\270~\275\251\306\024\275j6%\275\202\377\225\275\330\014\224=\371\303\021=|U\'=\303\213\021\273\270\347\274\274\251{\036=\026H\312\274\274W\317\274\255\340:<\342Y\006\274\224\244\214\275\255\256e\274q\221B=\250\275\252\274\306\320|=`\276\t\275\354\202\251=\260a\273\275\360>S\275)\230\202<\272\240q\274\370\236~\274R8\266\275)1\223\274V\002D=\276\252A\275\370!$\274\335=\217\274\325\3255=wd\370:\023$\370<\331,D\275R\231\217\274\\?\354<>#8=\231\035\016\275r\240\204\275\343\273w\275\354\262W<F\360\202=\307\n\217\275\365\312\250<\2064<=\356\274\370<\354\236\222=\370\357\030=\200X\334<\322\2704\275\021I\003\274\006\023^<\0240S\274v\360\266\274\370\n\341\274\277&\243= \316\027=\205\275\213=\351{\342\275\360\375\327<\332\363\222=\220#\216=\206?\233\275\216\004k\274\013\337\344\274%0\375<\354<d\275\262)\216\274\341c>=\217\t8=D\264\n;.a:\274Z\035\336<\253\035\372\272\311\364\347\273\266t\244\275\262n\240\275yU\321\275\366\370\'\275\274\002\206=DN\245\275\001\273c<$\364\276\275\020\225\216\275s\033/<\364<\313\274\375T\212\2759\'\005\275}\377\263\274\354#\204<\376\004x<\360\033)=Zl6\275\270g\271<^=\317<\036\372Y\275+\350\271\272K&\321\274YzO=\3479\237=&E!\275\266W\204=\227:\236=\262\2025\273\244R\252<\006\331>=F\r\207\273\035\337\263\274\230\344$\275\321\360G\274\243bK=\023\210\005\275\243\262\350\273\372\214H\275\377\251\250=\365\000,\275E\363M\275)\020\026\274\033\330\300<,h-=\335\216\206\275\265\\\231\275\272\222\203=\343\327G<\020\257\203<\203\272n=2\035\323\274\001\373\026;s\021\033=\322q\220\274\317\020{=YL\243=\266\235}=-\0032\275\020XU=\r\177c=P\321\354\273a\272\216=c\334\002=\177\237{<\235k\232=\330\274\302\274.r\356\274\261\n\336\273u\245&\273\031\223\324\274\303\372j=\314\254\256\275\033G$\275\277\361o\275+H\305<\327\242\310\274A\347=\275\204J\236=\200\273\"\275\257\256X\275\231\335Y\275{\373w\275\207A\237\2757\330\235\275\271j\205\275[\272!\275Rk\366\274\032\321\370<\337\\\264\274\240\262\273\275\226\362\006=c\342-\274Q)\360\275\244\375d\275hD\033\275\"zF=A\026\203\275\017\261\330<)\212\017\275\213\007r\274\n\206I=\253\007\245\275\275/\003=k\305\033\275\020\013?;\000\362\317\274\226E\354;\177l\242\275s\253\014=L8\224=\025z\013\275\326\020j\275_\261\343\273\352\357J=n\316V\272\023\346\337<Y\352)\275[\223\025:\257Z%\273C\336\335\275\233nV=\231:\205=\220\242J\275\232r\276<0g\014=U\236}=X\r\263\274\236M\246\275\")\272\274\312\304\2449\022\020\211\274\360D\265\274Nr\214\274\302\215\336\2756\254\234\274\357\335\037\275\310\000\252\275Y\360\203=\320f\016<\005\260`;%C\226\274q\263\376;\037\317\266\274\346\2715\275\206\035U\275X>1\273\001\325\213\275\3161O\275\305\276\231\275<\237m=c\024\003\275Y\026z<\315\211\227\274y\306\r\275\013\036\213;2\347\321;\303(\277\274\236v\265\274\225\351d=\256gX<\202\311\220=\024\005D=<\010\355<%\025\204\275\347\252\266\274F\307\256=\005a\270<\2600Y\275~\202\020\274\317\027\352<}S.\275\371\366\263\275\320r\247\274\"\n;=4|\333\275n\273\211\275|Me=V-A=\316\213\220=\375\225\200<:\347\032\275_[L;\331>}\275C,